{
  "version": "1.0",
  "truncation": null,
  "padding": null,
  "added_tokens": [
    {
      "id": 0,
      "content": "[PAD]",
      "single_word": false,
      "lstrip": false,
      "rstrip": false,
      "normalized": false,
      "special": true
    },
    {
      "id": 1,
      "content": "[STA]",
      "single_word": false,
      "lstrip": false,
      "rstrip": false,
      "normalized": false,
      "special": true
    },
    {
      "id": 2,
      "content": "[END]",
      "single_word": false,
      "lstrip": false,
      "rstrip": false,
      "normalized": false,
      "special": true
    },
    {
      "id": 3,
      "content": "[UNK]",
      "single_word": false,
      "lstrip": false,
      "rstrip": false,
      "normalized": false,
      "special": true
    }
  ],
  "normalizer": null,
  "pre_tokenizer": {
    "type": "Whitespace"
  },
  "post_processor": {
    "type": "TemplateProcessing",
    "single": [
      {
        "SpecialToken": {
          "id": "[STA]",
          "type_id": 0
        }
      },
      {
        "Sequence": {
          "id": "A",
          "type_id": 0
        }
      },
      {
        "SpecialToken": {
          "id": "[END]",
          "type_id": 0
        }
      }
    ],
    "pair": [
      {
        "Sequence": {
          "id": "A",
          "type_id": 0
        }
      },
      {
        "Sequence": {
          "id": "B",
          "type_id": 1
        }
      }
    ],
    "special_tokens": {
      "[END]": {
        "id": "[END]",
        "ids": [
          2
        ],
        "tokens": [
          "[END]"
        ]
      },
      "[PAD]": {
        "id": "[PAD]",
        "ids": [
          0
        ],
        "tokens": [
          "[PAD]"
        ]
      },
      "[STA]": {
        "id": "[STA]",
        "ids": [
          1
        ],
        "tokens": [
          "[STA]"
        ]
      },
      "[UNK]": {
        "id": "[UNK]",
        "ids": [
          3
        ],
        "tokens": [
          "[UNK]"
        ]
      }
    }
  },
  "decoder": null,
  "model": {
    "type": "BPE",
    "dropout": null,
    "unk_token": "[UNK]",
    "continuing_subword_prefix": null,
    "end_of_word_suffix": null,
    "fuse_unk": false,
    "byte_fallback": false,
    "vocab": {
      "[PAD]": 0,
      "[STA]": 1,
      "[END]": 2,
      "[UNK]": 3,
      "a": 4,
      "b": 5,
      "c": 6,
      "d": 7,
      "e": 8,
      "f": 9,
      "g": 10,
      "h": 11,
      "i": 12,
      "j": 13,
      "k": 14,
      "l": 15,
      "m": 16,
      "n": 17,
      "o": 18,
      "p": 19,
      "q": 20,
      "r": 21,
      "s": 22,
      "t": 23,
      "u": 24,
      "v": 25,
      "w": 26,
      "x": 27,
      "y": 28,
      "z": 29,
      "er": 30,
      "in": 31,
      "ar": 32,
      "an": 33,
      "al": 34,
      "st": 35,
      "en": 36,
      "on": 37,
      "or": 38,
      "at": 39,
      "et": 40,
      "re": 41,
      "it": 42,
      "ch": 43,
      "es": 44,
      "el": 45,
      "ro": 46,
      "ic": 47,
      "as": 48,
      "lo": 49,
      "le": 50,
      "ra": 51,
      "co": 52,
      "am": 53,
      "th": 54,
      "is": 55,
      "ed": 56,
      "ap": 57,
      "ing": 58,
      "li": 59,
      "un": 60,
      "ac": 61,
      "de": 62,
      "ot": 63,
      "il": 64,
      "us": 65,
      "ur": 66,
      "oo": 67,
      "ad": 68,
      "ri": 69,
      "ent": 70,
      "ec": 71,
      "ay": 72,
      "ab": 73,
      "em": 74,
      "ag": 75,
      "om": 76,
      "op": 77,
      "ig": 78,
      "im": 79,
      "ut": 80,
      "sh": 81,
      "sp": 82,
      "ion": 83,
      "my": 84,
      "ol": 85,
      "ai": 86,
      "pl": 87,
      "ve": 88,
      "oc": 89,
      "vi": 90,
      "di": 91,
      "art": 92,
      "ver": 93,
      "up": 94,
      "os": 95,
      "ub": 96,
      "eb": 97,
      "um": 98,
      "pro": 99,
      "ul": 100,
      "ex": 101,
      "and": 102,
      "ak": 103,
      "ow": 104,
      "est": 105,
      "ck": 106,
      "ep": 107,
      "qu": 108,
      "id": 109,
      "ud": 110,
      "to": 111,
      "mo": 112,
      "bo": 113,
      "se": 114,
      "all": 115,
      "tra": 116,
      "if": 117,
      "of": 118,
      "ew": 119,
      "te": 120,
      "con": 121,
      "me": 122,
      "ast": 123,
      "ort": 124,
      "ers": 125,
      "ard": 126,
      "he": 127,
      "ip": 128,
      "tr": 129,
      "get": 130,
      "bi": 131,
      "ly": 132,
      "af": 133,
      "be": 134,
      "int": 135,
      "wor": 136,
      "ind": 137,
      "sc": 138,
      "go": 139,
      "ce": 140,
      "lin": 141,
      "app": 142,
      "ia": 143,
      "sm": 144,
      "ity": 145,
      "ir": 146,
      "ey": 147,
      "end": 148,
      "ma": 149,
      "ark": 150,
      "ate": 151,
      "com": 152,
      "jo": 153,
      "ant": 154,
      "ash": 155,
      "yp": 156,
      "ge": 157,
      "ess": 158,
      "ho": 159,
      "for": 160,
      "are": 161,
      "av": 162,
      "yo": 163,
      "cl": 164,
      "ect": 165,
      "iz": 166,
      "ick": 167,
      "ack": 168,
      "ist": 169,
      "ht": 170,
      "ass": 171,
      "bl": 172,
      "cr": 173,
      "ph": 174,
      "the": 175,
      "fi": 176,
      "ter": 177,
      "ell": 178,
      "po": 179,
      "do": 180,
      "ik": 181,
      "ure": 182,
      "mon": 183,
      "bu": 184,
      "ct": 185,
      "boo": 186,
      "per": 187,
      "ood": 188,
      "aw": 189,
      "fe": 190,
      "ation": 191,
      "und": 192,
      "ang": 193,
      "sy": 194,
      "her": 195,
      "we": 196,
      "ach": 197,
      "ev": 198,
      "ix": 199,
      "so": 200,
      "bet": 201,
      "io": 202,
      "ust": 203,
      "sk": 204,
      "no": 205,
      "man": 206,
      "pt": 207,
      "one": 208,
      "az": 209,
      "iv": 210,
      "med": 211,
      "met": 212,
      "ill": 213,
      "gu": 214,
      "res": 215,
      "work": 216,
      "gam": 217,
      "pay": 218,
      "car": 219,
      "ial": 220,
      "ft": 221,
      "low": 222,
      "ok": 223,
      "ie": 224,
      "ank": 225,
      "der": 226,
      "log": 227,
      "ool": 228,
      "ah": 229,
      "br": 230,
      "fin": 231,
      "alth": 232,
      "ital": 233,
      "clo": 234,
      "sw": 235,
      "ore": 236,
      "ne": 237,
      "fit": 238,
      "ain": 239,
      "act": 240,
      "fl": 241,
      "ber": 242,
      "ax": 243,
      "gro": 244,
      "gen": 245,
      "bit": 246,
      "dat": 247,
      "bot": 248,
      "aut": 249,
      "fo": 250,
      "cal": 251,
      "dig": 252,
      "au": 253,
      "mat": 254,
      "ser": 255,
      "ice": 256,
      "book": 257,
      "ine": 258,
      "wh": 259,
      "ite": 260,
      "pr": 261,
      "fre": 262,
      "dy": 263,
      "net": 264,
      "tim": 265,
      "ek": 266,
      "coin": 267,
      "vel": 268,
      "smart": 269,
      "web": 270,
      "chat": 271,
      "des": 272,
      "ign": 273,
      "ish": 274,
      "ide": 275,
      "ace": 276,
      "lab": 277,
      "ink": 278,
      "vo": 279,
      "gra": 280,
      "cre": 281,
      "sup": 282,
      "age": 283,
      "pe": 284,
      "port": 285,
      "air": 286,
      "ty": 287,
      "hom": 288,
      "box": 289,
      "health": 290,
      "ail": 291,
      "ive": 292,
      "ann": 293,
      "sch": 294,
      "play": 295,
      "vis": 296,
      "col": 297,
      "tech": 298,
      "sn": 299,
      "ans": 300,
      "ry": 301,
      "cloud": 302,
      "ef": 303,
      "cy": 304,
      "ics": 305,
      "ock": 306,
      "ance": 307,
      "ens": 308,
      "ory": 309,
      "ify": 310,
      "ins": 311,
      "by": 312,
      "mark": 313,
      "mi": 314,
      "ator": 315,
      "shop": 316,
      "ke": 317,
      "ult": 318,
      "ug": 319,
      "cryp": 320,
      "not": 321,
      "ight": 322,
      "gr": 323,
      "ib": 324,
      "asy": 325,
      "hub": 326,
      "lock": 327,
      "min": 328,
      "ong": 329,
      "ream": 330,
      "od": 331,
      "mer": 332,
      "flow": 333,
      "sport": 334,
      "link": 335,
      "eng": 336,
      "cle": 337,
      "ask": 338,
      "sim": 339,
      "ue": 340,
      "sal": 341,
      "lot": 342,
      "ert": 343,
      "nect": 344,
      "dr": 345,
      "ao": 346,
      "alk": 347,
      "hel": 348,
      "cor": 349,
      "ms": 350,
      "ld": 351,
      "ase": 352,
      "let": 353,
      "atch": 354,
      "out": 355,
      "ght": 356,
      "du": 357,
      "ment": 358,
      "mar": 359,
      "gre": 360,
      "ats": 361,
      "ext": 362,
      "mind": 363,
      "line": 364,
      "ys": 365,
      "anc": 366,
      "new": 367,
      "oft": 368,
      "list": 369,
      "lu": 370,
      "arn": 371,
      "soc": 372,
      "sol": 373,
      "day": 374,
      "now": 375,
      "track": 376,
      "digital": 377,
      "ies": 378,
      "ath": 379,
      "ez": 380,
      "able": 381,
      "ise": 382,
      "ire": 383,
      "tri": 384,
      "dio": 385,
      "ade": 386,
      "del": 387,
      "comp": 388,
      "gy": 389,
      "str": 390,
      "unt": 391,
      "bank": 392,
      "eck": 393,
      "plan": 394,
      "your": 395,
      "pre": 396,
      "mus": 397,
      "bal": 398,
      "amp": 399,
      "la": 400,
      "fy": 401,
      "tu": 402,
      "ith": 403,
      "ds": 404,
      "life": 405,
      "ions": 406,
      "code": 407,
      "card": 408,
      "par": 409,
      "cap": 410,
      "bud": 411,
      "sec": 412,
      "arm": 413,
      "ner": 414,
      "bra": 415,
      "best": 416,
      "sa": 417,
      "gpt": 418,
      "cont": 419,
      "food": 420,
      "dev": 421,
      "doc": 422,
      "club": 423,
      "ino": 424,
      "su": 425,
      "wall": 426,
      "view": 427,
      "find": 428,
      "ko": 429,
      "real": 430,
      "pi": 431,
      "fr": 432,
      "connect": 433,
      "own": 434,
      "gol": 435,
      "use": 436,
      "plus": 437,
      "easy": 438,
      "inst": 439,
      "pet": 440,
      "bar": 441,
      "ha": 442,
      "cent": 443,
      "urn": 444,
      "dis": 445,
      "top": 446,
      "ild": 447,
      "serv": 448,
      "market": 449,
      "pri": 450,
      "rol": 451,
      "ont": 452,
      "hu": 453,
      "mag": 454,
      "inter": 455,
      "va": 456,
      "att": 457,
      "iver": 458,
      "val": 459,
      "land": 460,
      "world": 461,
      "zz": 462,
      "star": 463,
      "ff": 464,
      "map": 465,
      "bus": 466,
      "saf": 467,
      "super": 468,
      "row": 469,
      "read": 470,
      "off": 471,
      "ple": 472,
      "social": 473,
      "mot": 474,
      "ps": 475,
      "ther": 476,
      "ech": 477,
      "red": 478,
      "ift": 479,
      "stu": 480,
      "ary": 481,
      "vir": 482,
      "ian": 483,
      "ble": 484,
      "care": 485,
      "job": 486,
      "yt": 487,
      "als": 488,
      "you": 489,
      "rid": 490,
      "ress": 491,
      "tok": 492,
      "key": 493,
      "arch": 494,
      "ung": 495,
      "win": 496,
      "ret": 497,
      "mem": 498,
      "fli": 499,
      "mak": 500,
      "cas": 501,
      "vest": 502,
      "aster": 503,
      "check": 504,
      "les": 505,
      "cash": 506,
      "og": 507,
      "ond": 508,
      "ker": 509,
      "tor": 510,
      "ze": 511,
      "ier": 512,
      "hot": 513,
      "kit": 514,
      "part": 515,
      "rop": 516,
      "bile": 517,
      "open": 518,
      "ven": 519,
      "live": 520,
      "ings": 521,
      "uk": 522,
      "can": 523,
      "ster": 524,
      "fle": 525,
      "dri": 526,
      "ness": 527,
      "vent": 528,
      "block": 529,
      "glo": 530,
      "bre": 531,
      "ful": 532,
      "our": 533,
      "form": 534,
      "sel": 535,
      "tel": 536,
      "ero": 537,
      "game": 538,
      "any": 539,
      "da": 540,
      "ower": 541,
      "good": 542,
      "ba": 543,
      "way": 544,
      "team": 545,
      "ger": 546,
      "online": 547,
      "ica": 548,
      "group": 549,
      "board": 550,
      "eth": 551,
      "syn": 552,
      "well": 553,
      "ta": 554,
      "ka": 555,
      "coach": 556,
      "ler": 557,
      "tv": 558,
      "ever": 559,
      "ss": 560,
      "tru": 561,
      "mail": 562,
      "fer": 563,
      "fam": 564,
      "money": 565,
      "crypto": 566,
      "cli": 567,
      "chain": 568,
      "leg": 569,
      "ox": 570,
      "ush": 571,
      "pol": 572,
      "nft": 573,
      "ical": 574,
      "pa": 575,
      "local": 576,
      "ets": 577,
      "verse": 578,
      "esh": 579,
      "wa": 580,
      "ci": 581,
      "men": 582,
      "iq": 583,
      "ons": 584,
      "dom": 585,
      "fri": 586,
      "rent": 587,
      "learn": 588,
      "ico": 589,
      "fun": 590,
      "py": 591,
      "home": 592,
      "ater": 593,
      "cam": 594,
      "wallet": 595,
      "back": 596,
      "city": 597,
      "ee": 598,
      "pal": 599,
      "ager": 600,
      "space": 601,
      "ki": 602,
      "travel": 603,
      "stor": 604,
      "gl": 605,
      "lead": 606,
      "ake": 607,
      "ari": 608,
      "oto": 609,
      "ence": 610,
      "cra": 611,
      "stream": 612,
      "tre": 613,
      "eg": 614,
      "event": 615,
      "tw": 616,
      "just": 617,
      "yn": 618,
      "mobile": 619,
      "liv": 620,
      "ji": 621,
      "soft": 622,
      "ook": 623,
      "si": 624,
      "ca": 625,
      "bon": 626,
      "bro": 627,
      "cast": 628,
      "vide": 629,
      "lit": 630,
      "ana": 631,
      "eld": 632,
      "cer": 633,
      "pass": 634,
      "pos": 635,
      "ti": 636,
      "spot": 637,
      "fu": 638,
      "ny": 639,
      "park": 640,
      "fil": 641,
      "theb": 642,
      "rit": 643,
      "son": 644,
      "zen": 645,
      "ord": 646,
      "music": 647,
      "cat": 648,
      "ton": 649,
      "ools": 650,
      "na": 651,
      "fast": 652,
      "ob": 653,
      "ale": 654,
      "hy": 655,
      "ener": 656,
      "games": 657,
      "che": 658,
      "rack": 659,
      "cu": 660,
      "har": 661,
      "ware": 662,
      "ject": 663,
      "ts": 664,
      "edu": 665,
      "vr": 666,
      "fir": 667,
      "grow": 668,
      "stem": 669,
      "ship": 670,
      "ja": 671,
      "ding": 672,
      "ors": 673,
      "ily": 674,
      "green": 675,
      "org": 676,
      "pix": 677,
      "comm": 678,
      "sl": 679,
      "ux": 680,
      "power": 681,
      "virtu": 682,
      "fly": 683,
      "happ": 684,
      "ron": 685,
      "sky": 686,
      "design": 687,
      "global": 688,
      "hi": 689,
      "ya": 690,
      "spe": 691,
      "bab": 692,
      "them": 693,
      "lif": 694,
      "que": 695,
      "ju": 696,
      "ou": 697,
      "els": 698,
      "rock": 699,
      "cur": 700,
      "dra": 701,
      "iss": 702,
      "kid": 703,
      "store": 704,
      "light": 705,
      "post": 706,
      "ni": 707,
      "ban": 708,
      "data": 709,
      "cel": 710,
      "biz": 711,
      "black": 712,
      "thes": 713,
      "dex": 714,
      "ren": 715,
      "pra": 716,
      "vers": 717,
      "meet": 718,
      "room": 719,
      "try": 720,
      "den": 721,
      "unch": 722,
      "bt": 723,
      "time": 724,
      "hyp": 725,
      "story": 726,
      "its": 727,
      "call": 728,
      "hum": 729,
      "invest": 730,
      "ement": 731,
      "fut": 732,
      "ply": 733,
      "za": 734,
      "exp": 735,
      "char": 736,
      "blu": 737,
      "master": 738,
      "ww": 739,
      "tal": 740,
      "sur": 741,
      "quick": 742,
      "ices": 743,
      "mate": 744,
      "ral": 745,
      "zy": 746,
      "buddy": 747,
      "vid": 748,
      "bil": 749,
      "run": 750,
      "ball": 751,
      "bri": 752,
      "ga": 753,
      "ky": 754,
      "sign": 755,
      "cc": 756,
      "dit": 757,
      "bir": 758,
      "next": 759,
      "sub": 760,
      "orn": 761,
      "ote": 762,
      "house": 763,
      "buy": 764,
      "friend": 765,
      "watch": 766,
      "busin": 767,
      "mit": 768,
      "stock": 769,
      "ime": 770,
      "pat": 771,
      "fra": 772,
      "max": 773,
      "build": 774,
      "nam": 775,
      "brand": 776,
      "labs": 777,
      "ina": 778,
      "dog": 779,
      "ku": 780,
      "stack": 781,
      "virtual": 782,
      "pan": 783,
      "quest": 784,
      "big": 785,
      "ben": 786,
      "test": 787,
      "hab": 788,
      "sco": 789,
      "snap": 790,
      "pn": 791,
      "war": 792,
      "love": 793,
      "bel": 794,
      "aily": 795,
      "here": 796,
      "ange": 797,
      "host": 798,
      "match": 799,
      "ome": 800,
      "point": 801,
      "qr": 802,
      "fund": 803,
      "fact": 804,
      "ks": 805,
      "ten": 806,
      "talk": 807,
      "led": 808,
      "pop": 809,
      "auto": 810,
      "crypt": 811,
      "studio": 812,
      "hol": 813,
      "ili": 814,
      "tax": 815,
      "project": 816,
      "mu": 817,
      "dream": 818,
      "vol": 819,
      "ru": 820,
      "set": 821,
      "blo": 822,
      "mic": 823,
      "fan": 824,
      "itch": 825,
      "ear": 826,
      "thep": 827,
      "fire": 828,
      "journ": 829,
      "anner": 830,
      "ric": 831,
      "ward": 832,
      "start": 833,
      "nat": 834,
      "uro": 835,
      "word": 836,
      "lay": 837,
      "pin": 838,
      "stud": 839,
      "utions": 840,
      "ov": 841,
      "train": 842,
      "ling": 843,
      "with": 844,
      "ual": 845,
      "pers": 846,
      "tap": 847,
      "bor": 848,
      "itor": 849,
      "ium": 850,
      "pad": 851,
      "era": 852,
      "shar": 853,
      "brain": 854,
      "ris": 855,
      "eco": 856,
      "law": 857,
      "lect": 858,
      "less": 859,
      "ste": 860,
      "guide": 861,
      "magic": 862,
      "flo": 863,
      "fac": 864,
      "trade": 865,
      "zer": 866,
      "inc": 867,
      "base": 868,
      "task": 869,
      "ize": 870,
      "sports": 871,
      "scri": 872,
      "vision": 873,
      "hal": 874,
      "mr": 875,
      "sen": 876,
      "ara": 877,
      "eme": 878,
      "mel": 879,
      "ile": 880,
      "intel": 881,
      "king": 882,
      "zo": 883,
      "gram": 884,
      "school": 885,
      "pic": 886,
      "anal": 887,
      "ally": 888,
      "hero": 889,
      "news": 890,
      "ety": 891,
      "assist": 892,
      "gi": 893,
      "rat": 894,
      "tag": 895,
      "fa": 896,
      "squ": 897,
      "ora": 898,
      "ley": 899,
      "what": 900,
      "emp": 901,
      "ube": 902,
      "finder": 903,
      "sun": 904,
      "count": 905,
      "daily": 906,
      "down": 907,
      "vet": 908,
      "feed": 909,
      "pap": 910,
      "acc": 911,
      "thec": 912,
      "cro": 913,
      "ads": 914,
      "rap": 915,
      "share": 916,
      "ich": 917,
      "tab": 918,
      "rec": 919,
      "hr": 920,
      "plat": 921,
      "drop": 922,
      "hand": 923,
      "loud": 924,
      "emo": 925,
      "system": 926,
      "nu": 927,
      "igh": 928,
      "cir": 929,
      "ano": 930,
      "pul": 931,
      "logy": 932,
      "ado": 933,
      "ata": 934,
      "bas": 935,
      "yu": 936,
      "network": 937,
      "mart": 938,
      "ocket": 939,
      "cart": 940,
      "jam": 941,
      "pot": 942,
      "deal": 943,
      "exper": 944,
      "token": 945,
      "dash": 946,
      "farm": 947,
      "sam": 948,
      "nov": 949,
      "gn": 950,
      "better": 951,
      "camp": 952,
      "ely": 953,
      "ura": 954,
      "click": 955,
      "trans": 956,
      "adi": 957,
      "order": 958,
      "aim": 959,
      "aid": 960,
      "insur": 961,
      "flex": 962,
      "sit": 963,
      "pod": 964,
      "cul": 965,
      "business": 966,
      "mom": 967,
      "tracker": 968,
      "bur": 969,
      "fix": 970,
      "gar": 971,
      "kn": 972,
      "wise": 973,
      "stat": 974,
      "happy": 975,
      "tur": 976,
      "search": 977,
      "cyber": 978,
      "sales": 979,
      "ery": 980,
      "help": 981,
      "oh": 982,
      "kar": 983,
      "mp": 984,
      "hello": 985,
      "bol": 986,
      "cp": 987,
      "md": 988,
      "tick": 989,
      "swap": 990,
      "fol": 991,
      "lex": 992,
      "nex": 993,
      "thel": 994,
      "load": 995,
      "show": 996,
      "vy": 997,
      "uch": 998,
      "gal": 999,
      "api": 1000,
      "duct": 1001,
      "bb": 1002,
      "media": 1003,
      "got": 1004,
      "lan": 1005,
      "acade": 1006,
      "uru": 1007,
      "cons": 1008,
      "fitness": 1009,
      "whats": 1010,
      "tour": 1011,
      "manager": 1012,
      "pub": 1013,
      "keep": 1014,
      "rect": 1015,
      "portal": 1016,
      "mil": 1017,
      "hey": 1018,
      "flu": 1019,
      "graph": 1020,
      "pen": 1021,
      "ifi": 1022,
      "beaut": 1023,
      "fox": 1024,
      "thew": 1025,
      "ham": 1026,
      "ita": 1027,
      "ius": 1028,
      "nut": 1029,
      "rad": 1030,
      "sync": 1031,
      "free": 1032,
      "trust": 1033,
      "kr": 1034,
      "vip": 1035,
      "zi": 1036,
      "indi": 1037,
      "eat": 1038,
      "text": 1039,
      "family": 1040,
      "dn": 1041,
      "cover": 1042,
      "lio": 1043,
      "lar": 1044,
      "ping": 1045,
      "pick": 1046,
      "ls": 1047,
      "finance": 1048,
      "gas": 1049,
      "hor": 1050,
      "stre": 1051,
      "ame": 1052,
      "las": 1053,
      "buil": 1054,
      "works": 1055,
      "bul": 1056,
      "tt": 1057,
      "mc": 1058,
      "thed": 1059,
      "spac": 1060,
      "bestof": 1061,
      "ape": 1062,
      "db": 1063,
      "mor": 1064,
      "mix": 1065,
      "change": 1066,
      "ops": 1067,
      "mas": 1068,
      "bill": 1069,
      "alt": 1070,
      "scan": 1071,
      "joy": 1072,
      "onlin": 1073,
      "unity": 1074,
      "collect": 1075,
      "simple": 1076,
      "tom": 1077,
      "ato": 1078,
      "oss": 1079,
      "ations": 1080,
      "meta": 1081,
      "first": 1082,
      "don": 1083,
      "je": 1084,
      "ito": 1085,
      "prom": 1086,
      "erv": 1087,
      "etra": 1088,
      "she": 1089,
      "dent": 1090,
      "hop": 1091,
      "bee": 1092,
      "service": 1093,
      "tle": 1094,
      "brid": 1095,
      "ll": 1096,
      "xx": 1097,
      "rep": 1098,
      "sound": 1099,
      "ere": 1100,
      "urch": 1101,
      "agent": 1102,
      "join": 1103,
      "desk": 1104,
      "ele": 1105,
      "ram": 1106,
      "priv": 1107,
      "ict": 1108,
      "proper": 1109,
      "gg": 1110,
      "but": 1111,
      "cs": 1112,
      "wis": 1113,
      "dot": 1114,
      "gift": 1115,
      "ken": 1116,
      "cho": 1117,
      "direct": 1118,
      "afe": 1119,
      "academy": 1120,
      "know": 1121,
      "ani": 1122,
      "ama": 1123,
      "econ": 1124,
      "reg": 1125,
      "craft": 1126,
      "bs": 1127,
      "mac": 1128,
      "sty": 1129,
      "ada": 1130,
      "gold": 1131,
      "kt": 1132,
      "kin": 1133,
      "control": 1134,
      "ates": 1135,
      "jet": 1136,
      "ars": 1137,
      "emy": 1138,
      "crow": 1139,
      "fort": 1140,
      "lic": 1141,
      "trip": 1142,
      "ost": 1143,
      "wr": 1144,
      "agen": 1145,
      "mt": 1146,
      "wer": 1147,
      "loy": 1148,
      "hon": 1149,
      "ather": 1150,
      "imp": 1151,
      "ender": 1152,
      "ivery": 1153,
      "ii": 1154,
      "tin": 1155,
      "loop": 1156,
      "thing": 1157,
      "video": 1158,
      "pas": 1159,
      "cour": 1160,
      "ility": 1161,
      "medi": 1162,
      "mult": 1163,
      "sav": 1164,
      "coun": 1165,
      "place": 1166,
      "product": 1167,
      "ffe": 1168,
      "kal": 1169,
      "clean": 1170,
      "tar": 1171,
      "elo": 1172,
      "quiz": 1173,
      "pocket": 1174,
      "vin": 1175,
      "photo": 1176,
      "core": 1177,
      "kl": 1178,
      "wiz": 1179,
      "abs": 1180,
      "moon": 1181,
      "baby": 1182,
      "sum": 1183,
      "head": 1184,
      "fish": 1185,
      "eto": 1186,
      "univer": 1187,
      "jodi": 1188,
      "han": 1189,
      "ient": 1190,
      "tip": 1191,
      "lim": 1192,
      "gener": 1193,
      "creat": 1194,
      "cri": 1195,
      "alph": 1196,
      "urity": 1197,
      "oom": 1198,
      "far": 1199,
      "gig": 1200,
      "ped": 1201,
      "sell": 1202,
      "opt": 1203,
      "san": 1204,
      "ute": 1205,
      "file": 1206,
      "insurance": 1207,
      "nor": 1208,
      "acy": 1209,
      "shi": 1210,
      "secure": 1211,
      "golf": 1212,
      "foc": 1213,
      "over": 1214,
      "pag": 1215,
      "skill": 1216,
      "gym": 1217,
      "ros": 1218,
      "credit": 1219,
      "pack": 1220,
      "aker": 1221,
      "foot": 1222,
      "phot": 1223,
      "bitcoin": 1224,
      "mal": 1225,
      "spark": 1226,
      "fair": 1227,
      "amer": 1228,
      "quant": 1229,
      "mony": 1230,
      "ction": 1231,
      "din": 1232,
      "jobs": 1233,
      "cann": 1234,
      "class": 1235,
      "voice": 1236,
      "party": 1237,
      "lat": 1238,
      "only": 1239,
      "cook": 1240,
      "deep": 1241,
      "cust": 1242,
      "cha": 1243,
      "energy": 1244,
      "fect": 1245,
      "gon": 1246,
      "kon": 1247,
      "planner": 1248,
      "sil": 1249,
      "insp": 1250,
      "ork": 1251,
      "person": 1252,
      "bin": 1253,
      "mad": 1254,
      "bn": 1255,
      "ala": 1256,
      "solutions": 1257,
      "dl": 1258,
      "wo": 1259,
      "alert": 1260,
      "sta": 1261,
      "uni": 1262,
      "igo": 1263,
      "scre": 1264,
      "bes": 1265,
      "hire": 1266,
      "aro": 1267,
      "ene": 1268,
      "heart": 1269,
      "det": 1270,
      "vit": 1271,
      "enc": 1272,
      "lux": 1273,
      "equ": 1274,
      "body": 1275,
      "mm": 1276,
      "uit": 1277,
      "thet": 1278,
      "ump": 1279,
      "sex": 1280,
      "info": 1281,
      "ye": 1282,
      "yer": 1283,
      "ones": 1284,
      "icon": 1285,
      "dem": 1286,
      "tran": 1287,
      "gh": 1288,
      "review": 1289,
      "financ": 1290,
      "every": 1291,
      "pu": 1292,
      "ectr": 1293,
      "pd": 1294,
      "ali": 1295,
      "rain": 1296,
      "aj": 1297,
      "fro": 1298,
      "nom": 1299,
      "water": 1300,
      "insight": 1301,
      "human": 1302,
      "future": 1303,
      "wel": 1304,
      "ific": 1305,
      "found": 1306,
      "walk": 1307,
      "engine": 1308,
      "hyper": 1309,
      "beauty": 1310,
      "zone": 1311,
      "shot": 1312,
      "autom": 1313,
      "ring": 1314,
      "tool": 1315,
      "wed": 1316,
      "writ": 1317,
      "ree": 1318,
      "coffe": 1319,
      "crm": 1320,
      "notes": 1321,
      "casino": 1322,
      "tik": 1323,
      "xy": 1324,
      "alo": 1325,
      "stri": 1326,
      "ena": 1327,
      "path": 1328,
      "vpn": 1329,
      "infin": 1330,
      "movi": 1331,
      "fresh": 1332,
      "maker": 1333,
      "nt": 1334,
      "num": 1335,
      "flix": 1336,
      "lub": 1337,
      "wi": 1338,
      "esp": 1339,
      "ism": 1340,
      "fus": 1341,
      "goo": 1342,
      "unit": 1343,
      "plant": 1344,
      "sle": 1345,
      "van": 1346,
      "hous": 1347,
      "stru": 1348,
      "micro": 1349,
      "hack": 1350,
      "church": 1351,
      "this": 1352,
      "pur": 1353,
      "self": 1354,
      "bd": 1355,
      "tot": 1356,
      "anim": 1357,
      "dro": 1358,
      "send": 1359,
      "ago": 1360,
      "chart": 1361,
      "mod": 1362,
      "auth": 1363,
      "pilot": 1364,
      "eter": 1365,
      "adv": 1366,
      "right": 1367,
      "services": 1368,
      "tes": 1369,
      "bird": 1370,
      "cad": 1371,
      "wap": 1372,
      "look": 1373,
      "ution": 1374,
      "sour": 1375,
      "soul": 1376,
      "print": 1377,
      "cut": 1378,
      "ns": 1379,
      "email": 1380,
      "cit": 1381,
      "fx": 1382,
      "think": 1383,
      "ious": 1384,
      "note": 1385,
      "drive": 1386,
      "lus": 1387,
      "field": 1388,
      "wealth": 1389,
      "custom": 1390,
      "mes": 1391,
      "mint": 1392,
      "ents": 1393,
      "arket": 1394,
      "cards": 1395,
      "roll": 1396,
      "ios": 1397,
      "lam": 1398,
      "center": 1399,
      "iam": 1400,
      "wave": 1401,
      "cher": 1402,
      "sho": 1403,
      "color": 1404,
      "safe": 1405,
      "builder": 1406,
      "hq": 1407,
      "typ": 1408,
      "road": 1409,
      "ride": 1410,
      "ipe": 1411,
      "flash": 1412,
      "vault": 1413,
      "pg": 1414,
      "ete": 1415,
      "central": 1416,
      "marketing": 1417,
      "ytics": 1418,
      "mid": 1419,
      "guard": 1420,
      "step": 1421,
      "force": 1422,
      "speed": 1423,
      "dd": 1424,
      "por": 1425,
      "xi": 1426,
      "yl": 1427,
      "atri": 1428,
      "ople": 1429,
      "mobil": 1430,
      "ife": 1431,
      "band": 1432,
      "truck": 1433,
      "aa": 1434,
      "rt": 1435,
      "edia": 1436,
      "une": 1437,
      "astro": 1438,
      "venture": 1439,
      "gan": 1440,
      "rum": 1441,
      "poker": 1442,
      "menu": 1443,
      "intelli": 1444,
      "property": 1445,
      "guru": 1446,
      "pp": 1447,
      "ingo": 1448,
      "prompt": 1449,
      "gem": 1450,
      "how": 1451,
      "sing": 1452,
      "inn": 1453,
      "ense": 1454,
      "books": 1455,
      "racker": 1456,
      "hn": 1457,
      "bat": 1458,
      "wood": 1459,
      "stra": 1460,
      "loc": 1461,
      "rist": 1462,
      "bio": 1463,
      "dj": 1464,
      "tro": 1465,
      "lion": 1466,
      "hotel": 1467,
      "rocket": 1468,
      "kan": 1469,
      "kom": 1470,
      "pool": 1471,
      "zh": 1472,
      "bad": 1473,
      "site": 1474,
      "allet": 1475,
      "blue": 1476,
      "organ": 1477,
      "journal": 1478,
      "ves": 1479,
      "under": 1480,
      "high": 1481,
      "tak": 1482,
      "ated": 1483,
      "rel": 1484,
      "reward": 1485,
      "score": 1486,
      "bc": 1487,
      "fs": 1488,
      "gard": 1489,
      "zap": 1490,
      "apps": 1491,
      "lum": 1492,
      "mis": 1493,
      "zero": 1494,
      "inder": 1495,
      "boost": 1496,
      "focus": 1497,
      "capital": 1498,
      "legal": 1499,
      "gle": 1500,
      "oint": 1501,
      "bay": 1502,
      "clin": 1503,
      "chi": 1504,
      "chef": 1505,
      "advis": 1506,
      "spro": 1507,
      "aud": 1508,
      "fab": 1509,
      "mess": 1510,
      "tools": 1511,
      "enter": 1512,
      "ept": 1513,
      "lets": 1514,
      "doctor": 1515,
      "bid": 1516,
      "cert": 1517,
      "som": 1518,
      "ini": 1519,
      "ident": 1520,
      "delivery": 1521,
      "date": 1522,
      "ran": 1523,
      "won": 1524,
      "that": 1525,
      "aff": 1526,
      "gos": 1527,
      "nd": 1528,
      "tho": 1529,
      "via": 1530,
      "tract": 1531,
      "ais": 1532,
      "eo": 1533,
      "wind": 1534,
      "zu": 1535,
      "chen": 1536,
      "imag": 1537,
      "study": 1538,
      "dar": 1539,
      "gs": 1540,
      "izer": 1541,
      "ml": 1542,
      "rac": 1543,
      "shift": 1544,
      "homes": 1545,
      "press": 1546,
      "rev": 1547,
      "otes": 1548,
      "iao": 1549,
      "growth": 1550,
      "script": 1551,
      "culator": 1552,
      "aqu": 1553,
      "vert": 1554,
      "math": 1555,
      "budget": 1556,
      "pixel": 1557,
      "paper": 1558,
      "pres": 1559,
      "qi": 1560,
      "swe": 1561,
      "wal": 1562,
      "eta": 1563,
      "express": 1564,
      "pm": 1565,
      "radio": 1566,
      "imo": 1567,
      "ocial": 1568,
      "ister": 1569,
      "bag": 1570,
      "grid": 1571,
      "paw": 1572,
      "ony": 1573,
      "ural": 1574,
      "add": 1575,
      "street": 1576,
      "gir": 1577,
      "ami": 1578,
      "igital": 1579,
      "studi": 1580,
      "ave": 1581,
      "cn": 1582,
      "fant": 1583,
      "stop": 1584,
      "bh": 1585,
      "bx": 1586,
      "pand": 1587,
      "ines": 1588,
      "apk": 1589,
      "lik": 1590,
      "genius": 1591,
      "clear": 1592,
      "sar": 1593,
      "side": 1594,
      "report": 1595,
      "creator": 1596,
      "ebook": 1597,
      "simpl": 1598,
      "community": 1599,
      "talent": 1600,
      "ience": 1601,
      "nav": 1602,
      "ting": 1603,
      "ores": 1604,
      "ury": 1605,
      "sha": 1606,
      "aven": 1607,
      "manag": 1608,
      "ible": 1609,
      "ati": 1610,
      "cool": 1611,
      "sys": 1612,
      "ments": 1613,
      "planet": 1614,
      "learning": 1615,
      "sand": 1616,
      "edge": 1617,
      "omn": 1618,
      "old": 1619,
      "bell": 1620,
      "oper": 1621,
      "mov": 1622,
      "matri": 1623,
      "screen": 1624,
      "nation": 1625,
      "expl": 1626,
      "heal": 1627,
      "kids": 1628,
      "dol": 1629,
      "uber": 1630,
      "mach": 1631,
      "company": 1632,
      "suite": 1633,
      "office": 1634,
      "gor": 1635,
      "xr": 1636,
      "ula": 1637,
      "support": 1638,
      "consult": 1639,
      "mos": 1640,
      "wik": 1641,
      "electr": 1642,
      "oop": 1643,
      "agu": 1644,
      "player": 1645,
      "mb": 1646,
      "sat": 1647,
      "xt": 1648,
      "buzz": 1649,
      "cin": 1650,
      "hip": 1651,
      "lish": 1652,
      "estate": 1653,
      "fest": 1654,
      "face": 1655,
      "hash": 1656,
      "ij": 1657,
      "sin": 1658,
      "wil": 1659,
      "amo": 1660,
      "abet": 1661,
      "omo": 1662,
      "ards": 1663,
      "nin": 1664,
      "vac": 1665,
      "angel": 1666,
      "living": 1667,
      "bed": 1668,
      "jack": 1669,
      "song": 1670,
      "ters": 1671,
      "eno": 1672,
      "ray": 1673,
      "utor": 1674,
      "cup": 1675,
      "cult": 1676,
      "lang": 1677,
      "west": 1678,
      "beat": 1679,
      "commer": 1680,
      "flight": 1681,
      "uz": 1682,
      "wire": 1683,
      "ane": 1684,
      "sto": 1685,
      "slot": 1686,
      "trail": 1687,
      "dating": 1688,
      "full": 1689,
      "gate": 1690,
      "hive": 1691,
      "jar": 1692,
      "deck": 1693,
      "eman": 1694,
      "bridge": 1695,
      "git": 1696,
      "hunt": 1697,
      "stick": 1698,
      "away": 1699,
      "genie": 1700,
      "habit": 1701,
      "kk": 1702,
      "ui": 1703,
      "usic": 1704,
      "platform": 1705,
      "aic": 1706,
      "cv": 1707,
      "meal": 1708,
      "asset": 1709,
      "medic": 1710,
      "illa": 1711,
      "near": 1712,
      "cab": 1713,
      "hat": 1714,
      "imm": 1715,
      "bible": 1716,
      "crowd": 1717,
      "rx": 1718,
      "yst": 1719,
      "ebo": 1720,
      "monitor": 1721,
      "action": 1722,
      "nes": 1723,
      "nel": 1724,
      "rm": 1725,
      "ona": 1726,
      "plac": 1727,
      "luck": 1728,
      "lun": 1729,
      "rics": 1730,
      "sof": 1731,
      "tec": 1732,
      "ition": 1733,
      "amaz": 1734,
      "apy": 1735,
      "usa": 1736,
      "capt": 1737,
      "ticket": 1738,
      "jun": 1739,
      "pc": 1740,
      "yal": 1741,
      "robot": 1742,
      "activ": 1743,
      "launch": 1744,
      "security": 1745,
      "arc": 1746,
      "etch": 1747,
      "lov": 1748,
      "dian": 1749,
      "weather": 1750,
      "ws": 1751,
      "apt": 1752,
      "ille": 1753,
      "emon": 1754,
      "perfect": 1755,
      "content": 1756,
      "personal": 1757,
      "bers": 1758,
      "dm": 1759,
      "kick": 1760,
      "uc": 1761,
      "rip": 1762,
      "rive": 1763,
      "model": 1764,
      "snow": 1765,
      "fleet": 1766,
      "journey": 1767,
      "gent": 1768,
      "ating": 1769,
      "training": 1770,
      "psy": 1771,
      "account": 1772,
      "ander": 1773,
      "door": 1774,
      "access": 1775,
      "hun": 1776,
      "pep": 1777,
      "loan": 1778,
      "dec": 1779,
      "move": 1780,
      "pulse": 1781,
      "fid": 1782,
      "vn": 1783,
      "onet": 1784,
      "ori": 1785,
      "ese": 1786,
      "domain": 1787,
      "brow": 1788,
      "dao": 1789,
      "gest": 1790,
      "js": 1791,
      "rs": 1792,
      "ette": 1793,
      "made": 1794,
      "audi": 1795,
      "earth": 1796,
      "ae": 1797,
      "gb": 1798,
      "len": 1799,
      "los": 1800,
      "ando": 1801,
      "seed": 1802,
      "solar": 1803,
      "poly": 1804,
      "circle": 1805,
      "bow": 1806,
      "gt": 1807,
      "yi": 1808,
      "break": 1809,
      "ait": 1810,
      "moo": 1811,
      "urs": 1812,
      "short": 1813,
      "die": 1814,
      "trend": 1815,
      "front": 1816,
      "sleep": 1817,
      "dle": 1818,
      "kat": 1819,
      "remot": 1820,
      "admin": 1821,
      "rich": 1822,
      "vey": 1823,
      "bright": 1824,
      "financial": 1825,
      "cm": 1826,
      "ento": 1827,
      "aya": 1828,
      "geo": 1829,
      "ground": 1830,
      "friends": 1831,
      "avi": 1832,
      "ges": 1833,
      "inf": 1834,
      "epay": 1835,
      "buck": 1836,
      "boss": 1837,
      "jn": 1838,
      "pure": 1839,
      "wy": 1840,
      "zip": 1841,
      "unic": 1842,
      "aire": 1843,
      "cub": 1844,
      "mir": 1845,
      "rand": 1846,
      "vu": 1847,
      "zb": 1848,
      "stay": 1849,
      "then": 1850,
      "ador": 1851,
      "logic": 1852,
      "servic": 1853,
      "jodii": 1854,
      "cell": 1855,
      "fm": 1856,
      "ira": 1857,
      "tit": 1858,
      "spir": 1859,
      "profit": 1860,
      "teach": 1861,
      "izz": 1862,
      "voic": 1863,
      "secret": 1864,
      "fuel": 1865,
      "bun": 1866,
      "last": 1867,
      "ras": 1868,
      "sem": 1869,
      "wash": 1870,
      "ales": 1871,
      "apro": 1872,
      "fash": 1873,
      "gp": 1874,
      "hd": 1875,
      "hit": 1876,
      "tast": 1877,
      "christ": 1878,
      "ews": 1879,
      "people": 1880,
      "great": 1881,
      "factory": 1882,
      "dan": 1883,
      "fc": 1884,
      "nic": 1885,
      "tem": 1886,
      "innov": 1887,
      "stand": 1888,
      "acon": 1889,
      "exchange": 1890,
      "analytics": 1891,
      "foo": 1892,
      "atic": 1893,
      "lean": 1894,
      "ages": 1895,
      "ose": 1896,
      "trading": 1897,
      "oftware": 1898,
      "aer": 1899,
      "kai": 1900,
      "pac": 1901,
      "lip": 1902,
      "god": 1903,
      "carbon": 1904,
      "ports": 1905,
      "haus": 1906,
      "offic": 1907,
      "say": 1908,
      "esign": 1909,
      "ebox": 1910,
      "prot": 1911,
      "trader": 1912,
      "ika": 1913,
      "folio": 1914,
      "dor": 1915,
      "gop": 1916,
      "mn": 1917,
      "rint": 1918,
      "ume": 1919,
      "tek": 1920,
      "dia": 1921,
      "meg": 1922,
      "gether": 1923,
      "endar": 1924,
      "mall": 1925,
      "night": 1926,
      "tan": 1927,
      "yes": 1928,
      "ider": 1929,
      "clar": 1930,
      "hk": 1931,
      "qq": 1932,
      "uck": 1933,
      "wan": 1934,
      "agro": 1935,
      "safety": 1936,
      "flip": 1937,
      "expert": 1938,
      "blog": 1939,
      "dad": 1940,
      "iot": 1941,
      "sab": 1942,
      "tun": 1943,
      "vend": 1944,
      "aps": 1945,
      "lift": 1946,
      "spec": 1947,
      "boy": 1948,
      "audio": 1949,
      "simply": 1950,
      "speak": 1951,
      "fusion": 1952,
      "ney": 1953,
      "vas": 1954,
      "esk": 1955,
      "cosm": 1956,
      "olutions": 1957,
      "ido": 1958,
      "touch": 1959,
      "medical": 1960,
      "euro": 1961,
      "jd": 1962,
      "abis": 1963,
      "epic": 1964,
      "ners": 1965,
      "elf": 1966,
      "ola": 1967,
      "mob": 1968,
      "ista": 1969,
      "booking": 1970,
      "ified": 1971,
      "impact": 1972,
      "sr": 1973,
      "tam": 1974,
      "chang": 1975,
      "ela": 1976,
      "optim": 1977,
      "ortg": 1978,
      "beach": 1979,
      "neuro": 1980,
      "save": 1981,
      "bloom": 1982,
      "dc": 1983,
      "fig": 1984,
      "ket": 1985,
      "ston": 1986,
      "apo": 1987,
      "div": 1988,
      "server": 1989,
      "aur": 1990,
      "bub": 1991,
      "wol": 1992,
      "ym": 1993,
      "oro": 1994,
      "recor": 1995,
      "edit": 1996,
      "oce": 1997,
      "aze": 1998,
      "swift": 1999,
      "software": 2000,
      "aq": 2001,
      "stro": 2002,
      "lify": 2003,
      "viv": 2004,
      "ewor": 2005,
      "bey": 2006,
      "www": 2007,
      "tiny": 2008,
      "gof": 2009,
      "whe": 2010,
      "conc": 2011,
      "enda": 2012,
      "week": 2013,
      "gaming": 2014,
      "visual": 2015,
      "tree": 2016,
      "dt": 2017,
      "rub": 2018,
      "sens": 2019,
      "wit": 2020,
      "urban": 2021,
      "ular": 2022,
      "grup": 2023,
      "ready": 2024,
      "film": 2025,
      "assistant": 2026,
      "garden": 2027,
      "batt": 2028,
      "kh": 2029,
      "may": 2030,
      "ng": 2031,
      "nan": 2032,
      "pel": 2033,
      "sent": 2034,
      "inte": 2035,
      "ican": 2036,
      "ision": 2037,
      "bear": 2038,
      "ector": 2039,
      "axi": 2040,
      "crew": 2041,
      "peak": 2042,
      "visit": 2043,
      "blockchain": 2044,
      "clip": 2045,
      "client": 2046,
      "bak": 2047,
      "fans": 2048,
      "hist": 2049,
      "pip": 2050,
      "page": 2051,
      "tl": 2052,
      "woo": 2053,
      "stone": 2054,
      "asa": 2055,
      "edi": 2056,
      "plug": 2057,
      "coffee": 2058,
      "fal": 2059,
      "push": 2060,
      "uu": 2061,
      "wish": 2062,
      "proto": 2063,
      "phone": 2064,
      "wear": 2065,
      "dg": 2066,
      "earn": 2067,
      "giv": 2068,
      "kam": 2069,
      "mai": 2070,
      "wom": 2071,
      "lie": 2072,
      "demo": 2073,
      "goal": 2074,
      "fel": 2075,
      "lad": 2076,
      "ryp": 2077,
      "sig": 2078,
      "acion": 2079,
      "sym": 2080,
      "calculator": 2081,
      "fashion": 2082,
      "who": 2083,
      "abo": 2084,
      "ema": 2085,
      "viz": 2086,
      "make": 2087,
      "bah": 2088,
      "kra": 2089,
      "mood": 2090,
      "oz": 2091,
      "see": 2092,
      "forge": 2093,
      "gel": 2094,
      "hs": 2095,
      "mx": 2096,
      "iner": 2097,
      "oken": 2098,
      "wellness": 2099,
      "systems": 2100,
      "dx": 2101,
      "ias": 2102,
      "invent": 2103,
      "station": 2104,
      "iti": 2105,
      "rout": 2106,
      "radi": 2107,
      "copy": 2108,
      "diet": 2109,
      "eport": 2110,
      "eye": 2111,
      "active": 2112,
      "iro": 2113,
      "rans": 2114,
      "uth": 2115,
      "wild": 2116,
      "erp": 2117,
      "alog": 2118,
      "stats": 2119,
      "iter": 2120,
      "elev": 2121,
      "azy": 2122,
      "drink": 2123,
      "corp": 2124,
      "follow": 2125,
      "mam": 2126,
      "udo": 2127,
      "scor": 2128,
      "ants": 2129,
      "ures": 2130,
      "aza": 2131,
      "gri": 2132,
      "lend": 2133,
      "miss": 2134,
      "oon": 2135,
      "tex": 2136,
      "anch": 2137,
      "level": 2138,
      "shu": 2139,
      "atech": 2140,
      "iva": 2141,
      "dental": 2142,
      "eas": 2143,
      "jj": 2144,
      "emer": 2145,
      "qual": 2146,
      "today": 2147,
      "mobi": 2148,
      "gov": 2149,
      "acht": 2150,
      "healthy": 2151,
      "wonder": 2152,
      "commerce": 2153,
      "dark": 2154,
      "ilo": 2155,
      "more": 2156,
      "nis": 2157,
      "sv": 2158,
      "vot": 2159,
      "wow": 2160,
      "atom": 2161,
      "proc": 2162,
      "geek": 2163,
      "tery": 2164,
      "weed": 2165,
      "evol": 2166,
      "logist": 2167,
      "freed": 2168,
      "coup": 2169,
      "lix": 2170,
      "river": 2171,
      "arts": 2172,
      "educ": 2173,
      "scout": 2174,
      "student": 2175,
      "dam": 2176,
      "hoo": 2177,
      "pit": 2178,
      "sug": 2179,
      "enet": 2180,
      "ether": 2181,
      "def": 2182,
      "user": 2183,
      "ague": 2184,
      "ima": 2185,
      "ebu": 2186,
      "boat": 2187,
      "sale": 2188,
      "download": 2189,
      "rewards": 2190,
      "management": 2191,
      "vill": 2192,
      "chron": 2193,
      "cost": 2194,
      "codes": 2195,
      "island": 2196,
      "scal": 2197,
      "driver": 2198,
      "agency": 2199,
      "explor": 2200,
      "lt": 2201,
      "lor": 2202,
      "rr": 2203,
      "var": 2204,
      "reach": 2205,
      "lem": 2206,
      "eph": 2207,
      "bets": 2208,
      "coins": 2209,
      "broker": 2210,
      "sheet": 2211,
      "hex": 2212,
      "lap": 2213,
      "tx": 2214,
      "where": 2215,
      "isa": 2216,
      "split": 2217,
      "dies": 2218,
      "ebot": 2219,
      "lyn": 2220,
      "gear": 2221,
      "icket": 2222,
      "gence": 2223,
      "contact": 2224,
      "charge": 2225,
      "rapid": 2226,
      "goc": 2227,
      "pun": 2228,
      "ude": 2229,
      "contract": 2230,
      "ike": 2231,
      "bots": 2232,
      "brew": 2233,
      "kas": 2234,
      "kol": 2235,
      "lon": 2236,
      "nur": 2237,
      "vic": 2238,
      "voc": 2239,
      "arth": 2240,
      "etech": 2241,
      "cop": 2242,
      "una": 2243,
      "deals": 2244,
      "beer": 2245,
      "claim": 2246,
      "struct": 2247,
      "kind": 2248,
      "mut": 2249,
      "tm": 2250,
      "zel": 2251,
      "ader": 2252,
      "apper": 2253,
      "public": 2254,
      "football": 2255,
      "quantum": 2256,
      "lr": 2257,
      "nos": 2258,
      "cod": 2259,
      "very": 2260,
      "ebe": 2261,
      "words": 2262,
      "times": 2263,
      "iw": 2264,
      "rust": 2265,
      "ua": 2266,
      "bos": 2267,
      "gat": 2268,
      "rus": 2269,
      "sq": 2270,
      "ites": 2271,
      "forms": 2272,
      "eller": 2273,
      "guest": 2274,
      "clock": 2275,
      "techno": 2276,
      "saas": 2277,
      "bai": 2278,
      "fav": 2279,
      "hard": 2280,
      "haw": 2281,
      "rak": 2282,
      "aka": 2283,
      "byte": 2284,
      "generator": 2285,
      "source": 2286,
      "fn": 2287,
      "gom": 2288,
      "nest": 2289,
      "ved": 2290,
      "vital": 2291,
      "wid": 2292,
      "zk": 2293,
      "zoo": 2294,
      "atlas": 2295,
      "rest": 2296,
      "chann": 2297,
      "dest": 2298,
      "devel": 2299,
      "iger": 2300,
      "seo": 2301,
      "apple": 2302,
      "eu": 2303,
      "fat": 2304,
      "hen": 2305,
      "ln": 2306,
      "ett": 2307,
      "ams": 2308,
      "thread": 2309,
      "spar": 2310,
      "vibe": 2311,
      "feel": 2312,
      "little": 2313,
      "sense": 2314,
      "style": 2315,
      "advisor": 2316,
      "jan": 2317,
      "jes": 2318,
      "rank": 2319,
      "tail": 2320,
      "vs": 2321,
      "cos": 2322,
      "dep": 2323,
      "vio": 2324,
      "prof": 2325,
      "ection": 2326,
      "compan": 2327,
      "kel": 2328,
      "oy": 2329,
      "pup": 2330,
      "wu": 2331,
      "orig": 2332,
      "diam": 2333,
      "ida": 2334,
      "docs": 2335,
      "maps": 2336,
      "pract": 2337,
      "fantasy": 2338,
      "dub": 2339,
      "fur": 2340,
      "hl": 2341,
      "hay": 2342,
      "ono": 2343,
      "etic": 2344,
      "edo": 2345,
      "anda": 2346,
      "moder": 2347,
      "scape": 2348,
      "vox": 2349,
      "events": 2350,
      "cw": 2351,
      "doo": 2352,
      "gun": 2353,
      "long": 2354,
      "ming": 2355,
      "stag": 2356,
      "staff": 2357,
      "asi": 2358,
      "coder": 2359,
      "cogn": 2360,
      "apay": 2361,
      "illi": 2362,
      "ability": 2363,
      "spin": 2364,
      "andy": 2365,
      "ips": 2366,
      "ives": 2367,
      "motion": 2368,
      "moment": 2369,
      "ior": 2370,
      "lac": 2371,
      "nik": 2372,
      "town": 2373,
      "inv": 2374,
      "like": 2375,
      "monkey": 2376,
      "days": 2377,
      "bom": 2378,
      "hair": 2379,
      "mex": 2380,
      "table": 2381,
      "enow": 2382,
      "appl": 2383,
      "tron": 2384,
      "ivo": 2385,
      "calc": 2386,
      "collab": 2387,
      "english": 2388,
      "career": 2389,
      "protocol": 2390,
      "dic": 2391,
      "non": 2392,
      "qa": 2393,
      "tp": 2394,
      "wing": 2395,
      "xp": 2396,
      "aria": 2397,
      "reat": 2398,
      "elab": 2399,
      "rot": 2400,
      "leaf": 2401,
      "sms": 2402,
      "berry": 2403,
      "timer": 2404,
      "voy": 2405,
      "ugh": 2406,
      "motor": 2407,
      "coaching": 2408,
      "aver": 2409,
      "kle": 2410,
      "lass": 2411,
      "uo": 2412,
      "ern": 2413,
      "ario": 2414,
      "eline": 2415,
      "olar": 2416,
      "eway": 2417,
      "ella": 2418,
      "stories": 2419,
      "univers": 2420,
      "cannabis": 2421,
      "beyond": 2422,
      "bk": 2423,
      "fen": 2424,
      "gm": 2425,
      "hai": 2426,
      "jew": 2427,
      "xo": 2428,
      "atar": 2429,
      "liqu": 2430,
      "opay": 2431,
      "oll": 2432,
      "ultim": 2433,
      "smith": 2434,
      "azz": 2435,
      "brick": 2436,
      "flor": 2437,
      "pric": 2438,
      "mentor": 2439,
      "layer": 2440,
      "spirit": 2441,
      "bing": 2442,
      "dun": 2443,
      "ror": 2444,
      "aly": 2445,
      "tele": 2446,
      "status": 2447,
      "ervice": 2448,
      "atrimony": 2449,
      "fis": 2450,
      "gur": 2451,
      "mun": 2452,
      "mortg": 2453,
      "nap": 2454,
      "pik": 2455,
      "sd": 2456,
      "tc": 2457,
      "tai": 2458,
      "orte": 2459,
      "libr": 2460,
      "liber": 2461,
      "spl": 2462,
      "sphere": 2463,
      "digit": 2464,
      "whit": 2465,
      "ught": 2466,
      "premi": 2467,
      "member": 2468,
      "cross": 2469,
      "ih": 2470,
      "kur": 2471,
      "pli": 2472,
      "sant": 2473,
      "oney": 2474,
      "chool": 2475,
      "champ": 2476,
      "dee": 2477,
      "defi": 2478,
      "spy": 2479,
      "spect": 2480,
      "ids": 2481,
      "allen": 2482,
      "yout": 2483,
      "ized": 2484,
      "bug": 2485,
      "workout": 2486,
      "price": 2487,
      "links": 2488,
      "parent": 2489,
      "honey": 2490,
      "has": 2491,
      "mast": 2492,
      "rate": 2493,
      "ares": 2494,
      "alex": 2495,
      "chas": 2496,
      "cout": 2497,
      "cope": 2498,
      "opia": 2499,
      "ava": 2500,
      "bits": 2501,
      "dynam": 2502,
      "eshop": 2503,
      "recip": 2504,
      "fed": 2505,
      "ghost": 2506,
      "jer": 2507,
      "sli": 2508,
      "yun": 2509,
      "chess": 2510,
      "root": 2511,
      "adel": 2512,
      "ebank": 2513,
      "todo": 2514,
      "aller": 2515,
      "node": 2516,
      "login": 2517,
      "athlet": 2518,
      "partner": 2519,
      "startup": 2520,
      "covery": 2521,
      "bum": 2522,
      "dos": 2523,
      "eh": 2524,
      "mv": 2525,
      "uite": 2526,
      "anz": 2527,
      "raft": 2528,
      "uddy": 2529,
      "bik": 2530,
      "iron": 2531,
      "parking": 2532,
      "clinic": 2533,
      "girl": 2534,
      "fight": 2535,
      "oli": 2536,
      "ering": 2537,
      "inner": 2538,
      "asino": 2539,
      "ila": 2540,
      "pharm": 2541,
      "berg": 2542,
      "clever": 2543,
      "ync": 2544,
      "bao": 2545,
      "ien": 2546,
      "zon": 2547,
      "ede": 2548,
      "aper": 2549,
      "esty": 2550,
      "seek": 2551,
      "instant": 2552,
      "lucky": 2553,
      "dh": 2554,
      "kart": 2555,
      "turn": 2556,
      "udio": 2557,
      "entre": 2558,
      "shub": 2559,
      "ebet": 2560,
      "mode": 2561,
      "ework": 2562,
      "electric": 2563,
      "jin": 2564,
      "mim": 2565,
      "uy": 2566,
      "wav": 2567,
      "stell": 2568,
      "ravel": 2569,
      "oly": 2570,
      "dify": 2571,
      "prop": 2572,
      "owl": 2573,
      "trac": 2574,
      "paint": 2575,
      "busines": 2576,
      "insights": 2577,
      "studios": 2578,
      "national": 2579,
      "aus": 2580,
      "aig": 2581,
      "lis": 2582,
      "nc": 2583,
      "pink": 2584,
      "league": 2585,
      "omy": 2586,
      "ional": 2587,
      "cars": 2588,
      "bras": 2589,
      "switch": 2590,
      "mental": 2591,
      "internet": 2592,
      "reader": 2593,
      "leader": 2594,
      "nutri": 2595,
      "wedding": 2596,
      "bis": 2597,
      "hir": 2598,
      "iel": 2599,
      "lak": 2600,
      "pes": 2601,
      "sos": 2602,
      "tat": 2603,
      "wat": 2604,
      "abi": 2605,
      "phon": 2606,
      "pok": 2607,
      "skin": 2608,
      "metal": 2609,
      "prep": 2610,
      "rental": 2611,
      "leads": 2612,
      "ocean": 2613,
      "dop": 2614,
      "ged": 2615,
      "jas": 2616,
      "mass": 2617,
      "mik": 2618,
      "uis": 2619,
      "vc": 2620,
      "wp": 2621,
      "wher": 2622,
      "yan": 2623,
      "stak": 2624,
      "icy": 2625,
      "asc": 2626,
      "liance": 2627,
      "segu": 2628,
      "bike": 2629,
      "calendar": 2630,
      "matic": 2631,
      "soci": 2632,
      "wizard": 2633,
      "fah": 2634,
      "nit": 2635,
      "pig": 2636,
      "pak": 2637,
      "too": 2638,
      "twe": 2639,
      "vl": 2640,
      "chan": 2641,
      "elink": 2642,
      "abot": 2643,
      "plann": 2644,
      "duck": 2645,
      "prime": 2646,
      "frame": 2647,
      "econnect": 2648,
      "werk": 2649,
      "united": 2650,
      "intelligence": 2651,
      "hood": 2652,
      "nr": 2653,
      "past": 2654,
      "rail": 2655,
      "come": 2656,
      "ady": 2657,
      "sey": 2658,
      "appy": 2659,
      "boom": 2660,
      "stars": 2661,
      "files": 2662,
      "radar": 2663,
      "matrimony": 2664,
      "wheel": 2665,
      "dal": 2666,
      "his": 2667,
      "hook": 2668,
      "kum": 2669,
      "nf": 2670,
      "qur": 2671,
      "ving": 2672,
      "wt": 2673,
      "yum": 2674,
      "asp": 2675,
      "rix": 2676,
      "ione": 2677,
      "did": 2678,
      "worth": 2679,
      "john": 2680,
      "anti": 2681,
      "aval": 2682,
      "soli": 2683,
      "strong": 2684,
      "patient": 2685,
      "risk": 2686,
      "squad": 2687,
      "total": 2688,
      "give": 2689,
      "kun": 2690,
      "wes": 2691,
      "rade": 2692,
      "vie": 2693,
      "arty": 2694,
      "ipay": 2695,
      "endo": 2696,
      "istry": 2697,
      "enger": 2698,
      "reality": 2699,
      "golden": 2700,
      "infinity": 2701,
      "culture": 2702,
      "hunter": 2703,
      "gc": 2704,
      "ilot": 2705,
      "pho": 2706,
      "pitch": 2707,
      "rd": 2708,
      "will": 2709,
      "inger": 2710,
      "proof": 2711,
      "after": 2712,
      "evo": 2713,
      "medit": 2714,
      "minder": 2715,
      "keeper": 2716,
      "bang": 2717,
      "catch": 2718,
      "fon": 2719,
      "mh": 2720,
      "ning": 2721,
      "rise": 2722,
      "wl": 2723,
      "reel": 2724,
      "resp": 2725,
      "elog": 2726,
      "ocal": 2727,
      "together": 2728,
      "hod": 2729,
      "five": 2730,
      "guar": 2731,
      "flux": 2732,
      "peer": 2733,
      "realestate": 2734,
      "surf": 2735,
      "put": 2736,
      "porn": 2737,
      "sor": 2738,
      "sid": 2739,
      "six": 2740,
      "vote": 2741,
      "wag": 2742,
      "zt": 2743,
      "lee": 2744,
      "lia": 2745,
      "ota": 2746,
      "ecloud": 2747,
      "aki": 2748,
      "astic": 2749,
      "ird": 2750,
      "bles": 2751,
      "guid": 2752,
      "pris": 2753,
      "comput": 2754,
      "compass": 2755,
      "there": 2756,
      "campus": 2757,
      "channel": 2758,
      "sb": 2759,
      "wine": 2760,
      "index": 2761,
      "onic": 2762,
      "ities": 2763,
      "chem": 2764,
      "royal": 2765,
      "rab": 2766,
      "ays": 2767,
      "diary": 2768,
      "qui": 2769,
      "perman": 2770,
      "four": 2771,
      "therapy": 2772,
      "draw": 2773,
      "writer": 2774,
      "cx": 2775,
      "ces": 2776,
      "cai": 2777,
      "df": 2778,
      "kw": 2779,
      "mang": 2780,
      "xia": 2781,
      "recr": 2782,
      "ames": 2783,
      "spend": 2784,
      "spring": 2785,
      "ifty": 2786,
      "solo": 2787,
      "ival": 2788,
      "whis": 2789,
      "valu": 2790,
      "shield": 2791,
      "modern": 2792,
      "caf": 2793,
      "case": 2794,
      "fic": 2795,
      "hill": 2796,
      "kap": 2797,
      "mg": 2798,
      "mig": 2799,
      "mand": 2800,
      "nar": 2801,
      "pow": 2802,
      "pens": 2803,
      "patch": 2804,
      "rush": 2805,
      "ente": 2806,
      "ecal": 2807,
      "ecurity": 2808,
      "about": 2809,
      "aga": 2810,
      "oma": 2811,
      "program": 2812,
      "ultra": 2813,
      "mein": 2814,
      "metrics": 2815,
      "neo": 2816,
      "cycle": 2817,
      "offer": 2818,
      "fuck": 2819,
      "amazon": 2820,
      "gin": 2821,
      "hang": 2822,
      "kor": 2823,
      "lav": 2824,
      "pon": 2825,
      "enu": 2826,
      "etv": 2827,
      "etracker": 2828,
      "bound": 2829,
      "small": 2830,
      "oke": 2831,
      "mates": 2832,
      "privat": 2833,
      "loyal": 2834,
      "bnb": 2835,
      "integr": 2836,
      "university": 2837,
      "dim": 2838,
      "fak": 2839,
      "jk": 2840,
      "ous": 2841,
      "rh": 2842,
      "smo": 2843,
      "tub": 2844,
      "ville": 2845,
      "was": 2846,
      "refer": 2847,
      "cht": 2848,
      "race": 2849,
      "limit": 2850,
      "boot": 2851,
      "sea": 2852,
      "need": 2853,
      "banking": 2854,
      "dragon": 2855,
      "write": 2856,
      "audit": 2857,
      "shaadi": 2858,
      "machine": 2859,
      "ique": 2860,
      "mur": 2861,
      "stad": 2862,
      "enn": 2863,
      "ative": 2864,
      "rex": 2865,
      "chip": 2866,
      "elit": 2867,
      "thest": 2868,
      "union": 2869,
      "opro": 2870,
      "shad": 2871,
      "dial": 2872,
      "ull": 2873,
      "ford": 2874,
      "mijn": 2875,
      "ancer": 2876,
      "kitchen": 2877,
      "btc": 2878,
      "freedom": 2879,
      "bam": 2880,
      "bask": 2881,
      "burn": 2882,
      "tell": 2883,
      "yel": 2884,
      "stage": 2885,
      "etime": 2886,
      "asure": 2887,
      "adventure": 2888,
      "abe": 2889,
      "utter": 2890,
      "eper": 2891,
      "beam": 2892,
      "ends": 2893,
      "phys": 2894,
      "colle": 2895,
      "ways": 2896,
      "posit": 2897,
      "bull": 2898,
      "pdf": 2899,
      "permanent": 2900,
      "aco": 2901,
      "kay": 2902,
      "lens": 2903,
      "tow": 2904,
      "inos": 2905,
      "influ": 2906,
      "eli": 2907,
      "roid": 2908,
      "ecard": 2909,
      "vegas": 2910,
      "bean": 2911,
      "metam": 2912,
      "iller": 2913,
      "grand": 2914,
      "helper": 2915,
      "stuff": 2916,
      "retail": 2917,
      "glass": 2918,
      "meeting": 2919,
      "panel": 2920,
      "trainer": 2921,
      "creative": 2922,
      "nomad": 2923,
      "cafe": 2924,
      "glow": 2925,
      "rv": 2926,
      "tos": 2927,
      "tutor": 2928,
      "wet": 2929,
      "zoom": 2930,
      "iness": 2931,
      "aris": 2932,
      "round": 2933,
      "lev": 2934,
      "things": 2935,
      "emed": 2936,
      "shin": 2937,
      "artist": 2938,
      "prog": 2939,
      "quad": 2940,
      "indust": 2941,
      "izen": 2942,
      "ski": 2943,
      "axy": 2944,
      "luc": 2945,
      "strate": 2946,
      "energ": 2947,
      "taxi": 2948,
      "nexus": 2949,
      "pk": 2950,
      "sg": 2951,
      "sure": 2952,
      "sight": 2953,
      "erc": 2954,
      "dead": 2955,
      "ecare": 2956,
      "iko": 2957,
      "eval": 2958,
      "mann": 2959,
      "aux": 2960,
      "anced": 2961,
      "memor": 2962,
      "firm": 2963,
      "faith": 2964,
      "sweet": 2965,
      "official": 2966,
      "dict": 2967,
      "fall": 2968,
      "lant": 2969,
      "uan": 2970,
      "inal": 2971,
      "oned": 2972,
      "thub": 2973,
      "iles": 2974,
      "ables": 2975,
      "plate": 2976,
      "ype": 2977,
      "supers": 2978,
      "supply": 2979,
      "mindful": 2980,
      "muse": 2981,
      "prayer": 2982,
      "signal": 2983,
      "hold": 2984,
      "geb": 2985,
      "hem": 2986,
      "jr": 2987,
      "kim": 2988,
      "mesh": 2989,
      "pai": 2990,
      "pir": 2991,
      "tid": 2992,
      "wd": 2993,
      "elist": 2994,
      "roof": 2995,
      "acil": 2996,
      "ential": 2997,
      "sher": 2998,
      "shib": 2999,
      "dist": 3000,
      "eyour": 3001,
      "main": 3002,
      "hour": 3003,
      "redit": 3004,
      "blocks": 3005,
      "experience": 3006,
      "silver": 3007,
      "companion": 3008,
      "bew": 3009,
      "bond": 3010,
      "cb": 3011,
      "jum": 3012,
      "sai": 3013,
      "wen": 3014,
      "yar": 3015,
      "yam": 3016,
      "itz": 3017,
      "esc": 3018,
      "elle": 3019,
      "rais": 3020,
      "covid": 3021,
      "appro": 3022,
      "abl": 3023,
      "quot": 3024,
      "compl": 3025,
      "doub": 3026,
      "digi": 3027,
      "disney": 3028,
      "burg": 3029,
      "allenge": 3030,
      "bli": 3031,
      "dock": 3032,
      "eq": 3033,
      "fb": 3034,
      "jot": 3035,
      "nim": 3036,
      "oil": 3037,
      "pom": 3038,
      "tas": 3039,
      "ted": 3040,
      "tut": 3041,
      "yard": 3042,
      "ystem": 3043,
      "inet": 3044,
      "uss": 3045,
      "shark": 3046,
      "mais": 3047,
      "hosp": 3048,
      "izza": 3049,
      "itech": 3050,
      "zzle": 3051,
      "legacy": 3052,
      "investor": 3053,
      "ledger": 3054,
      "cryptoc": 3055,
      "spaces": 3056,
      "education": 3057,
      "gain": 3058,
      "hid": 3059,
      "jap": 3060,
      "ture": 3061,
      "uv": 3062,
      "zet": 3063,
      "ethe": 3064,
      "elect": 3065,
      "thri": 3066,
      "ental": 3067,
      "ester": 3068,
      "aste": 3069,
      "hotels": 3070,
      "points": 3071,
      "india": 3072,
      "espace": 3073,
      "bcp": 3074,
      "jt": 3075,
      "kop": 3076,
      "lick": 3077,
      "ology": 3078,
      "etrack": 3079,
      "rew": 3080,
      "ello": 3081,
      "spa": 3082,
      "splus": 3083,
      "mount": 3084,
      "ortal": 3085,
      "forman": 3086,
      "terra": 3087,
      "cred": 3088,
      "miner": 3089,
      "ontrol": 3090,
      "truth": 3091,
      "american": 3092,
      "browser": 3093,
      "history": 3094,
      "ei": 3095,
      "gd": 3096,
      "jay": 3097,
      "jim": 3098,
      "lite": 3099,
      "nas": 3100,
      "rar": 3101,
      "rup": 3102,
      "sop": 3103,
      "xin": 3104,
      "arab": 3105,
      "element": 3106,
      "url": 3107,
      "ados": 3108,
      "iptv": 3109,
      "maj": 3110,
      "common": 3111,
      "grocer": 3112,
      "pret": 3113,
      "snip": 3114,
      "cryptop": 3115,
      "oday": 3116,
      "ffic": 3117,
      "counter": 3118,
      "thought": 3119,
      "bim": 3120,
      "lc": 3121,
      "rk": 3122,
      "ante": 3123,
      "state": 3124,
      "leap": 3125,
      "colo": 3126,
      "oci": 3127,
      "estat": 3128,
      "science": 3129,
      "metro": 3130,
      "swip": 3131,
      "locker": 3132,
      "salon": 3133,
      "ezy": 3134,
      "aadi": 3135,
      "ein": 3136,
      "fot": 3137,
      "haven": 3138,
      "uer": 3139,
      "uel": 3140,
      "orm": 3141,
      "elife": 3142,
      "uri": 3143,
      "emot": 3144,
      "agem": 3145,
      "aku": 3146,
      "idad": 3147,
      "conver": 3148,
      "constru": 3149,
      "lines": 3150,
      "maz": 3151,
      "holi": 3152,
      "ivity": 3153,
      "gue": 3154,
      "payment": 3155,
      "freight": 3156,
      "chatgpt": 3157,
      "grab": 3158,
      "flower": 3159,
      "solution": 3160,
      "ungs": 3161,
      "ierge": 3162,
      "storm": 3163,
      "facil": 3164,
      "north": 3165,
      "matrix": 3166,
      "nearme": 3167,
      "gps": 3168,
      "nal": 3169,
      "ound": 3170,
      "rc": 3171,
      "ature": 3172,
      "apol": 3173,
      "imer": 3174,
      "uper": 3175,
      "uma": 3176,
      "smile": 3177,
      "holo": 3178,
      "forward": 3179,
      "izon": 3180,
      "mile": 3181,
      "rition": 3182,
      "designer": 3183,
      "dealer": 3184,
      "passport": 3185,
      "battle": 3186,
      "bly": 3187,
      "ea": 3188,
      "rica": 3189,
      "sis": 3190,
      "sah": 3191,
      "take": 3192,
      "erve": 3193,
      "lemon": 3194,
      "ups": 3195,
      "clus": 3196,
      "anger": 3197,
      "ache": 3198,
      "realty": 3199,
      "retro": 3200,
      "ccess": 3201,
      "name": 3202,
      "demand": 3203,
      "shoot": 3204,
      "protect": 3205,
      "develop": 3206,
      "ded": 3207,
      "daw": 3208,
      "fem": 3209,
      "hes": 3210,
      "hud": 3211,
      "jump": 3212,
      "mk": 3213,
      "nn": 3214,
      "ove": 3215,
      "ody": 3216,
      "rin": 3217,
      "toc": 3218,
      "alarm": 3219,
      "stash": 3220,
      "itas": 3221,
      "chin": 3222,
      "icle": 3223,
      "lian": 3224,
      "akt": 3225,
      "quote": 3226,
      "trades": 3227,
      "true": 3228,
      "gamer": 3229,
      "prene": 3230,
      "plex": 3231,
      "draft": 3232,
      "scribe": 3233,
      "analy": 3234,
      "podcast": 3235,
      "diamond": 3236,
      "gay": 3237,
      "gif": 3238,
      "hav": 3239,
      "lv": 3240,
      "nak": 3241,
      "ql": 3242,
      "td": 3243,
      "oni": 3244,
      "onec": 3245,
      "rom": 3246,
      "apex": 3247,
      "agram": 3248,
      "omni": 3249,
      "sper": 3250,
      "umi": 3251,
      "trace": 3252,
      "grat": 3253,
      "letter": 3254,
      "valley": 3255,
      "lives": 3256,
      "edule": 3257,
      "course": 3258,
      "around": 3259,
      "eboard": 3260,
      "rypto": 3261,
      "civ": 3262,
      "dut": 3263,
      "gut": 3264,
      "kes": 3265,
      "poo": 3266,
      "itter": 3267,
      "coop": 3268,
      "ria": 3269,
      "aba": 3270,
      "ems": 3271,
      "omi": 3272,
      "exam": 3273,
      "epe": 3274,
      "hear": 3275,
      "afin": 3276,
      "yoga": 3277,
      "aug": 3278,
      "aura": 3279,
      "auction": 3280,
      "ideas": 3281,
      "merch": 3282,
      "findmy": 3283,
      "pets": 3284,
      "memory": 3285,
      "privacy": 3286,
      "from": 3287,
      "bm": 3288,
      "ced": 3289,
      "dv": 3290,
      "hong": 3291,
      "jing": 3292,
      "kir": 3293,
      "nk": 3294,
      "rick": 3295,
      "sak": 3296,
      "wang": 3297,
      "coco": 3298,
      "omet": 3299,
      "image": 3300,
      "dir": 3301,
      "bob": 3302,
      "scr": 3303,
      "forever": 3304,
      "even": 3305,
      "autos": 3306,
      "mari": 3307,
      "connected": 3308,
      "nature": 3309,
      "llc": 3310,
      "cript": 3311,
      "staur": 3312,
      "customer": 3313,
      "cms": 3314,
      "fg": 3315,
      "gall": 3316,
      "lm": 3317,
      "mol": 3318,
      "rant": 3319,
      "sed": 3320,
      "wander": 3321,
      "research": 3322,
      "cham": 3323,
      "iso": 3324,
      "uno": 3325,
      "emate": 3326,
      "vegan": 3327,
      "boun": 3328,
      "seat": 3329,
      "eweb": 3330,
      "datas": 3331,
      "ideal": 3332,
      "fruit": 3333,
      "ridge": 3334,
      "partners": 3335,
      "survey": 3336,
      "photos": 3337,
      "animal": 3338,
      "bart": 3339,
      "gow": 3340,
      "hil": 3341,
      "hone": 3342,
      "kub": 3343,
      "lag": 3344,
      "nx": 3345,
      "uw": 3346,
      "eri": 3347,
      "cot": 3348,
      "debt": 3349,
      "rim": 3350,
      "ecure": 3351,
      "pros": 3352,
      "trak": 3353,
      "eyou": 3354,
      "iki": 3355,
      "nova": 3356,
      "oku": 3357,
      "bytes": 3358,
      "ators": 3359,
      "shopping": 3360,
      "secur": 3361,
      "sicher": 3362,
      "cheap": 3363,
      "building": 3364,
      "feedback": 3365,
      "metaverse": 3366,
      "ervices": 3367,
      "repair": 3368,
      "arketing": 3369,
      "consulting": 3370,
      "mission": 3371,
      "bv": 3372,
      "font": 3373,
      "gul": 3374,
      "jon": 3375,
      "kab": 3376,
      "mine": 3377,
      "zar": 3378,
      "enot": 3379,
      "rez": 3380,
      "ament": 3381,
      "isk": 3382,
      "epoint": 3383,
      "ewallet": 3384,
      "aware": 3385,
      "south": 3386,
      "ills": 3387,
      "snack": 3388,
      "mira": 3389,
      "videos": 3390,
      "lawyer": 3391,
      "court": 3392,
      "liquid": 3393,
      "basket": 3394,
      "done": 3395,
      "gab": 3396,
      "hh": 3397,
      "kong": 3398,
      "mec": 3399,
      "noc": 3400,
      "qp": 3401,
      "ration": 3402,
      "vp": 3403,
      "vity": 3404,
      "wak": 3405,
      "child": 3406,
      "elli": 3407,
      "leas": 3408,
      "apital": 3409,
      "vibes": 3410,
      "scanner": 3411,
      "mah": 3412,
      "hou": 3413,
      "logies": 3414,
      "smarter": 3415,
      "cycl": 3416,
      "mini": 3417,
      "cape": 3418,
      "factor": 3419,
      "cros": 3420,
      "healing": 3421,
      "bec": 3422,
      "dz": 3423,
      "ging": 3424,
      "hm": 3425,
      "jos": 3426,
      "pace": 3427,
      "plot": 3428,
      "sip": 3429,
      "tic": 3430,
      "ule": 3431,
      "upl": 3432,
      "wai": 3433,
      "yy": 3434,
      "anager": 3435,
      "onto": 3436,
      "orbit": 3437,
      "chap": 3438,
      "lease": 3439,
      "ige": 3440,
      "ument": 3441,
      "epal": 3442,
      "metab": 3443,
      "finity": 3444,
      "flat": 3445,
      "fren": 3446,
      "birth": 3447,
      "bench": 3448,
      "blox": 3449,
      "heroes": 3450,
      "universe": 3451,
      "ninja": 3452,
      "recruit": 3453,
      "dai": 3454,
      "dry": 3455,
      "fd": 3456,
      "idi": 3457,
      "late": 3458,
      "olo": 3459,
      "plo": 3460,
      "pie": 3461,
      "rl": 3462,
      "sust": 3463,
      "tube": 3464,
      "yacht": 3465,
      "arena": 3466,
      "challenge": 3467,
      "ason": 3468,
      "eder": 3469,
      "abc": 3470,
      "extra": 3471,
      "seven": 3472,
      "awa": 3473,
      "create": 3474,
      "cord": 3475,
      "minds": 3476,
      "insta": 3477,
      "value": 3478,
      "ledge": 3479,
      "employ": 3480,
      "collective": 3481,
      "bg": 3482,
      "beb": 3483,
      "blink": 3484,
      "eats": 3485,
      "hc": 3486,
      "sir": 3487,
      "twin": 3488,
      "uf": 3489,
      "xs": 3490,
      "zilla": 3491,
      "ency": 3492,
      "encer": 3493,
      "eland": 3494,
      "icom": 3495,
      "raw": 3496,
      "amed": 3497,
      "acle": 3498,
      "ocon": 3499,
      "being": 3500,
      "goals": 3501,
      "cryst": 3502,
      "azar": 3503,
      "meter": 3504,
      "metap": 3505,
      "never": 3506,
      "bite": 3507,
      "matter": 3508,
      "gran": 3509,
      "tracking": 3510,
      "foods": 3511,
      "viewer": 3512,
      "rency": 3513,
      "everything": 3514,
      "foundation": 3515,
      "google": 3516,
      "panda": 3517,
      "record": 3518,
      "process": 3519,
      "aign": 3520,
      "gap": 3521,
      "him": 3522,
      "kis": 3523,
      "sz": 3524,
      "tum": 3525,
      "temp": 3526,
      "ulo": 3527,
      "vm": 3528,
      "vor": 3529,
      "wink": 3530,
      "yon": 3531,
      "ref": 3532,
      "itt": 3533,
      "ingen": 3534,
      "ece": 3535,
      "emind": 3536,
      "shel": 3537,
      "spr": 3538,
      "myst": 3539,
      "verify": 3540,
      "bia": 3541,
      "scale": 3542,
      "eva": 3543,
      "skip": 3544,
      "healthcare": 3545,
      "second": 3546,
      "mapfre": 3547,
      "storage": 3548,
      "filter": 3549,
      "bene": 3550,
      "remote": 3551,
      "estyle": 3552,
      "brasil": 3553,
      "dab": 3554,
      "east": 3555,
      "hus": 3556,
      "iy": 3557,
      "jia": 3558,
      "kot": 3559,
      "pil": 3560,
      "tiger": 3561,
      "yoo": 3562,
      "enz": 3563,
      "emap": 3564,
      "agon": 3565,
      "umb": 3566,
      "profile": 3567,
      "esth": 3568,
      "teen": 3569,
      "ypay": 3570,
      "weight": 3571,
      "payments": 3572,
      "neigh": 3573,
      "fitnes": 3574,
      "dates": 3575,
      "timet": 3576,
      "lottery": 3577,
      "tribe": 3578,
      "deliver": 3579,
      "iverse": 3580,
      "viral": 3581,
      "transfer": 3582,
      "sites": 3583,
      "psych": 3584,
      "innovation": 3585,
      "library": 3586,
      "aust": 3587,
      "dw": 3588,
      "jc": 3589,
      "jp": 3590,
      "jud": 3591,
      "ses": 3592,
      "udi": 3593,
      "zr": 3594,
      "zhu": 3595,
      "iny": 3596,
      "into": 3597,
      "stake": 3598,
      "orth": 3599,
      "rek": 3600,
      "restaur": 3601,
      "itar": 3602,
      "unk": 3603,
      "ecar": 3604,
      "ecast": 3605,
      "proxy": 3606,
      "forest": 3607,
      "novel": 3608,
      "serve": 3609,
      "lotto": 3610,
      "suit": 3611,
      "breath": 3612,
      "poll": 3613,
      "broad": 3614,
      "handy": 3615,
      "luxury": 3616,
      "transport": 3617,
      "dollar": 3618,
      "langu": 3619,
      "special": 3620,
      "wolf": 3621,
      "explorer": 3622,
      "planning": 3623,
      "shadow": 3624,
      "cip": 3625,
      "ctr": 3626,
      "ecom": 3627,
      "gw": 3628,
      "gli": 3629,
      "hall": 3630,
      "kok": 3631,
      "nb": 3632,
      "qo": 3633,
      "rob": 3634,
      "edoc": 3635,
      "oter": 3636,
      "agend": 3637,
      "prox": 3638,
      "afric": 3639,
      "ession": 3640,
      "autop": 3641,
      "prest": 3642,
      "hoto": 3643,
      "pose": 3644,
      "cryptom": 3645,
      "dashboard": 3646,
      "tickets": 3647,
      "galaxy": 3648,
      "multi": 3649,
      "reviews": 3650,
      "college": 3651,
      "bau": 3652,
      "cus": 3653,
      "dance": 3654,
      "hap": 3655,
      "kre": 3656,
      "lunch": 3657,
      "nord": 3658,
      "pizz": 3659,
      "rug": 3660,
      "sf": 3661,
      "tix": 3662,
      "inu": 3663,
      "arma": 3664,
      "chick": 3665,
      "unter": 3666,
      "igen": 3667,
      "bour": 3668,
      "convers": 3669,
      "convert": 3670,
      "indo": 3671,
      "scar": 3672,
      "syner": 3673,
      "guy": 3674,
      "datab": 3675,
      "glam": 3676,
      "arium": 3677,
      "orders": 3678,
      "celer": 3679,
      "squar": 3680,
      "alpha": 3681,
      "pages": 3682,
      "imagin": 3683,
      "bem": 3684,
      "barn": 3685,
      "bhar": 3686,
      "daf": 3687,
      "kos": 3688,
      "kont": 3689,
      "mask": 3690,
      "sag": 3691,
      "sail": 3692,
      "tad": 3693,
      "tang": 3694,
      "vue": 3695,
      "wide": 3696,
      "wrap": 3697,
      "alter": 3698,
      "orld": 3699,
      "etwork": 3700,
      "roy": 3701,
      "route": 3702,
      "lok": 3703,
      "edin": 3704,
      "eden": 3705,
      "editor": 3706,
      "eclub": 3707,
      "ope": 3708,
      "olic": 3709,
      "quotes": 3710,
      "ewe": 3711,
      "gets": 3712,
      "oodle": 3713,
      "aude": 3714,
      "eze": 3715,
      "discover": 3716,
      "speech": 3717,
      "pray": 3718,
      "graphy": 3719,
      "pickle": 3720,
      "universal": 3721,
      "infinit": 3722,
      "number": 3723,
      "jesus": 3724,
      "bark": 3725,
      "iri": 3726,
      "kli": 3727,
      "kod": 3728,
      "ole": 3729,
      "sne": 3730,
      "wir": 3731,
      "xper": 3732,
      "aren": 3733,
      "answ": 3734,
      "ende": 3735,
      "orp": 3736,
      "eless": 3737,
      "asia": 3738,
      "cow": 3739,
      "adio": 3740,
      "vex": 3741,
      "epass": 3742,
      "lyt": 3743,
      "crush": 3744,
      "fili": 3745,
      "monster": 3746,
      "fits": 3747,
      "why": 3748,
      "strat": 3749,
      "balance": 3750,
      "echo": 3751,
      "checker": 3752,
      "square": 3753,
      "sugar": 3754,
      "mortgage": 3755,
      "dp": 3756,
      "dont": 3757,
      "slo": 3758,
      "xiao": 3759,
      "yah": 3760,
      "lig": 3761,
      "adigital": 3762,
      "ries": 3763,
      "aby": 3764,
      "shap": 3765,
      "shelf": 3766,
      "osa": 3767,
      "meu": 3768,
      "bees": 3769,
      "eyes": 3770,
      "oker": 3771,
      "bert": 3772,
      "hua": 3773,
      "memo": 3774,
      "wait": 3775,
      "funnel": 3776,
      "emobile": 3777,
      "country": 3778,
      "movie": 3779,
      "window": 3780,
      "dav": 3781,
      "hik": 3782,
      "noo": 3783,
      "neb": 3784,
      "pain": 3785,
      "sap": 3786,
      "tank": 3787,
      "vig": 3788,
      "wec": 3789,
      "zent": 3790,
      "zim": 3791,
      "eti": 3792,
      "elly": 3793,
      "robo": 3794,
      "lost": 3795,
      "coast": 3796,
      "islam": 3797,
      "lib": 3798,
      "unes": 3799,
      "unge": 3800,
      "ades": 3801,
      "rik": 3802,
      "riv": 3803,
      "emet": 3804,
      "uto": 3805,
      "spay": 3806,
      "eber": 3807,
      "exec": 3808,
      "tee": 3809,
      "clas": 3810,
      "ists": 3811,
      "achi": 3812,
      "mater": 3813,
      "grade": 3814,
      "ension": 3815,
      "ances": 3816,
      "muslim": 3817,
      "frank": 3818,
      "marketplace": 3819,
      "fully": 3820,
      "wisdom": 3821,
      "choice": 3822,
      "random": 3823,
      "bubble": 3824,
      "jewel": 3825,
      "sustain": 3826,
      "bread": 3827,
      "cand": 3828,
      "cyp": 3829,
      "cbd": 3830,
      "fill": 3831,
      "gang": 3832,
      "hiz": 3833,
      "hust": 3834,
      "hao": 3835,
      "jur": 3836,
      "maf": 3837,
      "nl": 3838,
      "oth": 3839,
      "tk": 3840,
      "tol": 3841,
      "tup": 3842,
      "yx": 3843,
      "inar": 3844,
      "elite": 3845,
      "raj": 3846,
      "cock": 3847,
      "coding": 3848,
      "iser": 3849,
      "edel": 3850,
      "ils": 3851,
      "ilder": 3852,
      "adam": 3853,
      "agic": 3854,
      "agement": 3855,
      "uten": 3856,
      "android": 3857,
      "iff": 3858,
      "avatar": 3859,
      "cles": 3860,
      "undry": 3861,
      "betting": 3862,
      "metas": 3863,
      "flag": 3864,
      "inks": 3865,
      "dron": 3866,
      "mary": 3867,
      "arning": 3868,
      "saver": 3869,
      "ffle": 3870,
      "casa": 3871,
      "zeit": 3872,
      "egg": 3873,
      "lifes": 3874,
      "tennis": 3875,
      "volt": 3876,
      "kingdom": 3877,
      "yuan": 3878,
      "tours": 3879,
      "america": 3880,
      "mobility": 3881,
      "eworld": 3882,
      "quran": 3883,
      "yellow": 3884,
      "preneur": 3885,
      "cf": 3886,
      "cia": 3887,
      "cube": 3888,
      "das": 3889,
      "kings": 3890,
      "lazy": 3891,
      "mill": 3892,
      "nai": 3893,
      "rend": 3894,
      "sus": 3895,
      "xl": 3896,
      "xing": 3897,
      "anth": 3898,
      "chill": 3899,
      "loo": 3900,
      "edul": 3901,
      "edev": 3902,
      "emusic": 3903,
      "shak": 3904,
      "pla": 3905,
      "ples": 3906,
      "plans": 3907,
      "versicher": 3908,
      "bizz": 3909,
      "avo": 3910,
      "booth": 3911,
      "mania": 3912,
      "minut": 3913,
      "soccer": 3914,
      "reading": 3915,
      "motiv": 3916,
      "onsult": 3917,
      "brief": 3918,
      "scope": 3919,
      "warri": 3920,
      "native": 3921,
      "bolt": 3922,
      "lane": 3923,
      "skills": 3924,
      "alerts": 3925,
      "emanager": 3926,
      "emoney": 3927,
      "women": 3928,
      "crystal": 3929,
      "bass": 3930,
      "hats": 3931,
      "ienc": 3932,
      "mul": 3933,
      "mash": 3934,
      "pent": 3935,
      "tg": 3936,
      "tn": 3937,
      "zl": 3938,
      "zam": 3939,
      "zing": 3940,
      "invoice": 3941,
      "stamp": 3942,
      "enst": 3943,
      "enix": 3944,
      "rech": 3945,
      "cog": 3946,
      "thr": 3947,
      "lil": 3948,
      "acar": 3949,
      "ots": 3950,
      "ematch": 3951,
      "agi": 3952,
      "aging": 3953,
      "agile": 3954,
      "vee": 3955,
      "veg": 3956,
      "eby": 3957,
      "eball": 3958,
      "bie": 3959,
      "anta": 3960,
      "dox": 3961,
      "performan": 3962,
      "swim": 3963,
      "datap": 3964,
      "grace": 3965,
      "ength": 3966,
      "nerd": 3967,
      "celeb": 3968,
      "halal": 3969,
      "movies": 3970,
      "author": 3971,
      "rummy": 3972,
      "daddy": 3973,
      "bund": 3974,
      "jl": 3975,
      "kore": 3976,
      "lake": 3977,
      "naut": 3978,
      "nifty": 3979,
      "pv": 3980,
      "rn": 3981,
      "sort": 3982,
      "til": 3983,
      "wast": 3984,
      "eral": 3985,
      "eren": 3986,
      "atter": 3987,
      "esa": 3988,
      "esis": 3989,
      "ici": 3990,
      "isit": 3991,
      "acare": 3992,
      "ott": 3993,
      "abox": 3994,
      "agri": 3995,
      "igator": 3996,
      "ulse": 3997,
      "trav": 3998,
      "consc": 3999,
      "heat": 4000,
      "worx": 4001,
      "bler": 4002,
      "crit": 4003,
      "sole": 4004,
      "final": 4005,
      "anna": 4006,
      "schedule": 4007,
      "discount": 4008,
      "select": 4009,
      "two": 4010,
      "brands": 4011,
      "hands": 4012,
      "butler": 4013,
      "target": 4014,
      "americ": 4015,
      "ventures": 4016,
      "inventory": 4017,
      "guardian": 4018,
      "hospital": 4019,
      "construction": 4020,
      "bby": 4021,
      "dish": 4022,
      "dong": 4023,
      "hed": 4024,
      "hig": 4025,
      "iu": 4026,
      "jen": 4027,
      "jit": 4028,
      "jav": 4029,
      "mock": 4030,
      "nab": 4031,
      "nag": 4032,
      "pill": 4033,
      "sac": 4034,
      "sud": 4035,
      "inbox": 4036,
      "atv": 4037,
      "rede": 4038,
      "roo": 4039,
      "livel": 4040,
      "adult": 4041,
      "emax": 4042,
      "vivo": 4043,
      "ebuddy": 4044,
      "promo": 4045,
      "conf": 4046,
      "erson": 4047,
      "linic": 4048,
      "fie": 4049,
      "idea": 4050,
      "drone": 4051,
      "bonus": 4052,
      "funds": 4053,
      "funding": 4054,
      "natural": 4055,
      "garage": 4056,
      "nutrition": 4057,
      "etravel": 4058,
      "inspire": 4059,
      "christian": 4060,
      "fahr": 4061,
      "hur": 4062,
      "haz": 4063,
      "oak": 4064,
      "rang": 4065,
      "zin": 4066,
      "ango": 4067,
      "rem": 4068,
      "chu": 4069,
      "ches": 4070,
      "asis": 4071,
      "copilot": 4072,
      "thre": 4073,
      "eca": 4074,
      "iment": 4075,
      "myn": 4076,
      "diff": 4077,
      "eprint": 4078,
      "afor": 4079,
      "sou": 4080,
      "cargo": 4081,
      "swing": 4082,
      "ysis": 4083,
      "markets": 4084,
      "ondon": 4085,
      "parts": 4086,
      "cryptos": 4087,
      "captain": 4088,
      "bucks": 4089,
      "mobili": 4090,
      "favor": 4091,
      "society": 4092,
      "bingo": 4093,
      "cant": 4094,
      "candy": 4095,
      "dk": 4096,
      "gad": 4097,
      "hug": 4098,
      "jm": 4099,
      "jab": 4100,
      "oi": 4101,
      "pf": 4102,
      "vul": 4103,
      "zhi": 4104,
      "align": 4105,
      "eni": 4106,
      "atel": 4107,
      "react": 4108,
      "choo": 4109,
      "rok": 4110,
      "thom": 4111,
      "dek": 4112,
      "otech": 4113,
      "urb": 4114,
      "spat": 4115,
      "umo": 4116,
      "bod": 4117,
      "seal": 4118,
      "ortex": 4119,
      "africa": 4120,
      "sclub": 4121,
      "blast": 4122,
      "dok": 4123,
      "booster": 4124,
      "wei": 4125,
      "autoc": 4126,
      "label": 4127,
      "peop": 4128,
      "ouch": 4129,
      "rooms": 4130,
      "steam": 4131,
      "recipe": 4132,
      "everyday": 4133,
      "authent": 4134,
      "places": 4135,
      "progress": 4136,
      "cep": 4137,
      "eon": 4138,
      "eur": 4139,
      "hg": 4140,
      "jol": 4141,
      "mant": 4142,
      "nip": 4143,
      "rp": 4144,
      "vv": 4145,
      "wn": 4146,
      "wod": 4147,
      "stable": 4148,
      "itude": 4149,
      "chase": 4150,
      "edata": 4151,
      "apost": 4152,
      "ably": 4153,
      "imes": 4154,
      "vern": 4155,
      "promot": 4156,
      "estim": 4157,
      "estudio": 4158,
      "quare": 4159,
      "trad": 4160,
      "buff": 4161,
      "awes": 4162,
      "neon": 4163,
      "pian": 4164,
      "zee": 4165,
      "hosting": 4166,
      "private": 4167,
      "coupon": 4168,
      "aero": 4169,
      "cake": 4170,
      "eer": 4171,
      "fang": 4172,
      "glu": 4173,
      "jug": 4174,
      "kad": 4175,
      "kak": 4176,
      "nub": 4177,
      "tus": 4178,
      "tapp": 4179,
      "ties": 4180,
      "zx": 4181,
      "zor": 4182,
      "ality": 4183,
      "rece": 4184,
      "leo": 4185,
      "edesign": 4186,
      "aca": 4187,
      "used": 4188,
      "agle": 4189,
      "imi": 4190,
      "sprint": 4191,
      "produ": 4192,
      "ulator": 4193,
      "toy": 4194,
      "most": 4195,
      "afety": 4196,
      "azi": 4197,
      "result": 4198,
      "ainment": 4199,
      "auf": 4200,
      "insure": 4201,
      "engage": 4202,
      "drum": 4203,
      "marin": 4204,
      "parad": 4205,
      "hui": 4206,
      "international": 4207,
      "moto": 4208,
      "archit": 4209,
      "venu": 4210,
      "polit": 4211,
      "crazy": 4212,
      "runner": 4213,
      "friendly": 4214,
      "ruck": 4215,
      "milk": 4216,
      "macro": 4217,
      "sticker": 4218,
      "concierge": 4219,
      "logistics": 4220,
      "loyalty": 4221,
      "gallery": 4222,
      "bz": 4223,
      "gather": 4224,
      "hung": 4225,
      "jf": 4226,
      "kash": 4227,
      "later": 4228,
      "must": 4229,
      "punch": 4230,
      "tb": 4231,
      "tatt": 4232,
      "vap": 4233,
      "ancy": 4234,
      "endi": 4235,
      "etics": 4236,
      "china": 4237,
      "leep": 4238,
      "rah": 4239,
      "eday": 4240,
      "unis": 4241,
      "abank": 4242,
      "emas": 4243,
      "again": 4244,
      "opin": 4245,
      "mys": 4246,
      "olab": 4247,
      "vist": 4248,
      "epad": 4249,
      "bout": 4250,
      "iful": 4251,
      "conn": 4252,
      "young": 4253,
      "mont": 4254,
      "resum": 4255,
      "ensor": 4256,
      "lots": 4257,
      "have": 4258,
      "casin": 4259,
      "camera": 4260,
      "lingo": 4261,
      "bored": 4262,
      "stein": 4263,
      "floor": 4264,
      "empire": 4265,
      "equip": 4266,
      "ification": 4267,
      "vacation": 4268,
      "azaar": 4269,
      "origin": 4270,
      "seguro": 4271,
      "meditation": 4272,
      "rabbit": 4273,
      "danc": 4274,
      "fax": 4275,
      "fetch": 4276,
      "jak": 4277,
      "km": 4278,
      "mud": 4279,
      "nud": 4280,
      "vt": 4281,
      "vak": 4282,
      "walt": 4283,
      "invit": 4284,
      "onem": 4285,
      "atlant": 4286,
      "reli": 4287,
      "resc": 4288,
      "loans": 4289,
      "amin": 4290,
      "aman": 4291,
      "aplus": 4292,
      "deo": 4293,
      "death": 4294,
      "shape": 4295,
      "myc": 4296,
      "proj": 4297,
      "quer": 4298,
      "trum": 4299,
      "beats": 4300,
      "hole": 4301,
      "iza": 4302,
      "ization": 4303,
      "bliss": 4304,
      "phy": 4305,
      "prise": 4306,
      "dyn": 4307,
      "ockey": 4308,
      "backup": 4309,
      "kryp": 4310,
      "dns": 4311,
      "regist": 4312,
      "frog": 4313,
      "purple": 4314,
      "girls": 4315,
      "festival": 4316,
      "masters": 4317,
      "solid": 4318,
      "bac": 4319,
      "jal": 4320,
      "mapp": 4321,
      "pact": 4322,
      "rut": 4323,
      "rice": 4324,
      "sist": 4325,
      "tier": 4326,
      "uh": 4327,
      "sters": 4328,
      "stalk": 4329,
      "ories": 4330,
      "etail": 4331,
      "restor": 4332,
      "esports": 4333,
      "aser": 4334,
      "thrive": 4335,
      "urf": 4336,
      "rio": 4337,
      "ribe": 4338,
      "rides": 4339,
      "entry": 4340,
      "entral": 4341,
      "emaster": 4342,
      "impro": 4343,
      "shit": 4344,
      "shut": 4345,
      "spell": 4346,
      "diy": 4347,
      "owner": 4348,
      "este": 4349,
      "trax": 4350,
      "traffic": 4351,
      "mee": 4352,
      "forex": 4353,
      "ials": 4354,
      "aha": 4355,
      "gency": 4356,
      "white": 4357,
      "pear": 4358,
      "colleg": 4359,
      "ights": 4360,
      "grub": 4361,
      "drug": 4362,
      "corner": 4363,
      "corpor": 4364,
      "mindset": 4365,
      "install": 4366,
      "barber": 4367,
      "ours": 4368,
      "catal": 4369,
      "juan": 4370,
      "talking": 4371,
      "holy": 4372,
      "shares": 4373,
      "horizon": 4374,
      "button": 4375,
      "counsel": 4376,
      "creativ": 4377,
      "automation": 4378,
      "hacker": 4379,
      "type": 4380,
      "present": 4381,
      "capture": 4382,
      "easyp": 4383,
      "village": 4384,
      "practice": 4385,
      "premium": 4386,
      "mountain": 4387,
      "aar": 4388,
      "cd": 4389,
      "dress": 4390,
      "gaz": 4391,
      "hos": 4392,
      "jh": 4393,
      "kinder": 4394,
      "mum": 4395,
      "qw": 4396,
      "sep": 4397,
      "tis": 4398,
      "tig": 4399,
      "vd": 4400,
      "ying": 4401,
      "zan": 4402,
      "zil": 4403,
      "zai": 4404,
      "enote": 4405,
      "onep": 4406,
      "recovery": 4407,
      "item": 4408,
      "chor": 4409,
      "chel": 4410,
      "lek": 4411,
      "eda": 4412,
      "edup": 4413,
      "acity": 4414,
      "iler": 4415,
      "abook": 4416,
      "omar": 4417,
      "ebase": 4418,
      "ulu": 4419,
      "moj": 4420,
      "meup": 4421,
      "beacon": 4422,
      "scap": 4423,
      "goat": 4424,
      "ashop": 4425,
      "essential": 4426,
      "fine": 4427,
      "neural": 4428,
      "flam": 4429,
      "when": 4430,
      "ishop": 4431,
      "schoo": 4432,
      "merc": 4433,
      "success": 4434,
      "connection": 4435,
      "instit": 4436,
      "huis": 4437,
      "formation": 4438,
      "david": 4439,
      "legend": 4440,
      "eshare": 4441,
      "padel": 4442,
      "campaign": 4443,
      "collection": 4444,
      "tiktok": 4445,
      "simples": 4446,
      "bunny": 4447,
      "hawk": 4448,
      "widget": 4449,
      "staging": 4450,
      "cue": 4451,
      "fter": 4452,
      "gx": 4453,
      "gum": 4454,
      "hep": 4455,
      "jy": 4456,
      "lal": 4457,
      "maid": 4458,
      "nen": 4459,
      "vem": 4460,
      "yak": 4461,
      "err": 4462,
      "oner": 4463,
      "revi": 4464,
      "revol": 4465,
      "roup": 4466,
      "amos": 4467,
      "rider": 4468,
      "empower": 4469,
      "emaker": 4470,
      "immo": 4471,
      "ocs": 4472,
      "arter": 4473,
      "prote": 4474,
      "estore": 4475,
      "meals": 4476,
      "bios": 4477,
      "afi": 4478,
      "holist": 4479,
      "blind": 4480,
      "crash": 4481,
      "phil": 4482,
      "aweb": 4483,
      "eke": 4484,
      "listen": 4485,
      "compos": 4486,
      "ference": 4487,
      "bros": 4488,
      "james": 4489,
      "fold": 4490,
      "indian": 4491,
      "collector": 4492,
      "hope": 4493,
      "iction": 4494,
      "message": 4495,
      "mirror": 4496,
      "technology": 4497,
      "strategy": 4498,
      "conscious": 4499,
      "bp": 4500,
      "bw": 4501,
      "cak": 4502,
      "cass": 4503,
      "eve": 4504,
      "gj": 4505,
      "had": 4506,
      "hind": 4507,
      "lash": 4508,
      "mia": 4509,
      "oul": 4510,
      "qs": 4511,
      "sik": 4512,
      "saw": 4513,
      "tally": 4514,
      "vat": 4515,
      "vant": 4516,
      "wem": 4517,
      "york": 4518,
      "erk": 4519,
      "anto": 4520,
      "stitch": 4521,
      "chil": 4522,
      "chair": 4523,
      "ross": 4524,
      "thank": 4525,
      "edigital": 4526,
      "adar": 4527,
      "shine": 4528,
      "mycar": 4529,
      "myhealth": 4530,
      "plum": 4531,
      "viet": 4532,
      "ewell": 4533,
      "ewise": 4534,
      "tea": 4535,
      "affili": 4536,
      "scloud": 4537,
      "smash": 4538,
      "irl": 4539,
      "iris": 4540,
      "format": 4541,
      "icks": 4542,
      "bux": 4543,
      "sketch": 4544,
      "metac": 4545,
      "guess": 4546,
      "worker": 4547,
      "axis": 4548,
      "website": 4549,
      "iba": 4550,
      "minal": 4551,
      "minim": 4552,
      "busy": 4553,
      "command": 4554,
      "queen": 4555,
      "mastery": 4556,
      "habits": 4557,
      "shared": 4558,
      "loader": 4559,
      "register": 4560,
      "inspect": 4561,
      "wiki": 4562,
      "unicorn": 4563,
      "teacher": 4564,
      "quality": 4565,
      "victor": 4566,
      "limited": 4567,
      "japan": 4568,
      "holiday": 4569,
      "aint": 4570,
      "bach": 4571,
      "cil": 4572,
      "dum": 4573,
      "ego": 4574,
      "joo": 4575,
      "jpm": 4576,
      "ked": 4577,
      "oot": 4578,
      "pis": 4579,
      "pair": 4580,
      "rhy": 4581,
      "tay": 4582,
      "xa": 4583,
      "zig": 4584,
      "ania": 4585,
      "alar": 4586,
      "alive": 4587,
      "etz": 4588,
      "etest": 4589,
      "request": 4590,
      "role": 4591,
      "icare": 4592,
      "lovel": 4593,
      "rai": 4594,
      "enta": 4595,
      "ecor": 4596,
      "ecret": 4597,
      "omed": 4598,
      "imple": 4599,
      "utz": 4600,
      "shout": 4601,
      "span": 4602,
      "estar": 4603,
      "quik": 4604,
      "uda": 4605,
      "intro": 4606,
      "joint": 4607,
      "tern": 4608,
      "nost": 4609,
      "many": 4610,
      "method": 4611,
      "dataf": 4612,
      "foli": 4613,
      "matters": 4614,
      "tracks": 4615,
      "laundry": 4616,
      "haul": 4617,
      "return": 4618,
      "uki": 4619,
      "ethis": 4620,
      "ushi": 4621,
      "lifestyle": 4622,
      "juice": 4623,
      "banco": 4624,
      "gifts": 4625,
      "county": 4626,
      "citizen": 4627,
      "bucket": 4628,
      "clarity": 4629,
      "grocery": 4630,
      "bard": 4631,
      "banc": 4632,
      "dapp": 4633,
      "gai": 4634,
      "gly": 4635,
      "jung": 4636,
      "klo": 4637,
      "kill": 4638,
      "kink": 4639,
      "ode": 4640,
      "rite": 4641,
      "sund": 4642,
      "vay": 4643,
      "xc": 4644,
      "zah": 4645,
      "zorg": 4646,
      "alli": 4647,
      "stv": 4648,
      "oria": 4649,
      "elabs": 4650,
      "thy": 4651,
      "isy": 4652,
      "ingles": 4653,
      "acloud": 4654,
      "otic": 4655,
      "otto": 4656,
      "urt": 4657,
      "urish": 4658,
      "rig": 4659,
      "agenda": 4660,
      "omes": 4661,
      "omic": 4662,
      "immedi": 4663,
      "uts": 4664,
      "shir": 4665,
      "diag": 4666,
      "uba": 4667,
      "expo": 4668,
      "mous": 4669,
      "ewith": 4670,
      "orts": 4671,
      "intent": 4672,
      "ircle": 4673,
      "ickets": 4674,
      "metat": 4675,
      "guitar": 4676,
      "cares": 4677,
      "fty": 4678,
      "ieve": 4679,
      "ahub": 4680,
      "flav": 4681,
      "datam": 4682,
      "freel": 4683,
      "graf": 4684,
      "airport": 4685,
      "valid": 4686,
      "canvas": 4687,
      "drip": 4688,
      "ething": 4689,
      "cheat": 4690,
      "dreams": 4691,
      "natur": 4692,
      "emoj": 4693,
      "laser": 4694,
      "products": 4695,
      "seller": 4696,
      "puzzle": 4697,
      "sourc": 4698,
      "atomic": 4699,
      "spatial": 4700,
      "bf": 4701,
      "eal": 4702,
      "gf": 4703,
      "hin": 4704,
      "hart": 4705,
      "hof": 4706,
      "hell": 4707,
      "jaw": 4708,
      "koo": 4709,
      "kem": 4710,
      "morn": 4711,
      "nop": 4712,
      "nick": 4713,
      "qt": 4714,
      "rpg": 4715,
      "tact": 4716,
      "vai": 4717,
      "want": 4718,
      "watt": 4719,
      "zak": 4720,
      "ination": 4721,
      "aries": 4722,
      "allo": 4723,
      "algo": 4724,
      "envi": 4725,
      "enft": 4726,
      "orch": 4727,
      "eton": 4728,
      "reis": 4729,
      "chic": 4730,
      "chop": 4731,
      "loot": 4732,
      "oof": 4733,
      "entert": 4734,
      "ecall": 4735,
      "plic": 4736,
      "vista": 4737,
      "ultr": 4738,
      "esto": 4739,
      "epark": 4740,
      "quit": 4741,
      "ofic": 4742,
      "meat": 4743,
      "meister": 4744,
      "ending": 4745,
      "maint": 4746,
      "forum": 4747,
      "blaz": 4748,
      "buch": 4749,
      "nology": 4750,
      "ivot": 4751,
      "metaf": 4752,
      "reserv": 4753,
      "oki": 4754,
      "whol": 4755,
      "voices": 4756,
      "byt": 4757,
      "ulture": 4758,
      "compare": 4759,
      "views": 4760,
      "magaz": 4761,
      "meme": 4762,
      "anywhere": 4763,
      "famili": 4764,
      "litt": 4765,
      "builders": 4766,
      "xxx": 4767,
      "fortun": 4768,
      "messenger": 4769,
      "racing": 4770,
      "junk": 4771,
      "foodi": 4772,
      "giving": 4773,
      "bahis": 4774,
      "texas": 4775,
      "restaurant": 4776,
      "born": 4777,
      "dag": 4778,
      "fert": 4779,
      "jor": 4780,
      "kd": 4781,
      "kik": 4782,
      "laz": 4783,
      "mip": 4784,
      "pus": 4785,
      "pim": 4786,
      "vint": 4787,
      "wifi": 4788,
      "intr": 4789,
      "invoic": 4790,
      "sth": 4791,
      "sten": 4792,
      "ondemand": 4793,
      "athe": 4794,
      "rod": 4795,
      "ison": 4796,
      "eds": 4797,
      "decor": 4798,
      "usiness": 4799,
      "ooth": 4800,
      "omeg": 4801,
      "olis": 4802,
      "olution": 4803,
      "veh": 4804,
      "ocity": 4805,
      "arte": 4806,
      "ubi": 4807,
      "prosper": 4808,
      "ules": 4809,
      "andgo": 4810,
      "ewatch": 4811,
      "heim": 4812,
      "geon": 4813,
      "forme": 4814,
      "yog": 4815,
      "yous": 4816,
      "blank": 4817,
      "monet": 4818,
      "swipe": 4819,
      "ishi": 4820,
      "sche": 4821,
      "cold": 4822,
      "plane": 4823,
      "prim": 4824,
      "anything": 4825,
      "icoin": 4826,
      "funn": 4827,
      "camer": 4828,
      "ordin": 4829,
      "navi": 4830,
      "currency": 4831,
      "houseof": 4832,
      "equity": 4833,
      "writing": 4834,
      "decision": 4835,
      "falcon": 4836,
      "gateway": 4837,
      "technologies": 4838,
      "lucid": 4839,
      "aesth": 4840,
      "cic": 4841,
      "cath": 4842,
      "dart": 4843,
      "dani": 4844,
      "fet": 4845,
      "gie": 4846,
      "hac": 4847,
      "hiv": 4848,
      "jw": 4849,
      "jian": 4850,
      "kers": 4851,
      "laf": 4852,
      "seb": 4853,
      "tac": 4854,
      "vil": 4855,
      "wick": 4856,
      "wats": 4857,
      "anet": 4858,
      "ande": 4859,
      "orange": 4860,
      "chines": 4861,
      "loom": 4862,
      "raph": 4863,
      "amar": 4864,
      "dez": 4865,
      "adapt": 4866,
      "opent": 4867,
      "opens": 4868,
      "igu": 4869,
      "imon": 4870,
      "iones": 4871,
      "vida": 4872,
      "artific": 4873,
      "ako": 4874,
      "togo": 4875,
      "mother": 4876,
      "indig": 4877,
      "scen": 4878,
      "assets": 4879,
      "phant": 4880,
      "thealth": 4881,
      "flare": 4882,
      "auton": 4883,
      "calm": 4884,
      "labor": 4885,
      "credi": 4886,
      "homet": 4887,
      "shopper": 4888,
      "kee": 4889,
      "notify": 4890,
      "odel": 4891,
      "strength": 4892,
      "prec": 4893,
      "magnet": 4894,
      "attorn": 4895,
      "ource": 4896,
      "famil": 4897,
      "streams": 4898,
      "hydro": 4899,
      "harmon": 4900,
      "wars": 4901,
      "cosmic": 4902,
      "enetwork": 4903,
      "threads": 4904,
      "computer": 4905,
      "museum": 4906,
      "double": 4907,
      "bharat": 4908,
      "dail": 4909,
      "gast": 4910,
      "gist": 4911,
      "hatch": 4912,
      "hors": 4913,
      "lord": 4914,
      "nw": 4915,
      "nem": 4916,
      "ril": 4917,
      "sad": 4918,
      "tz": 4919,
      "wif": 4920,
      "wah": 4921,
      "yc": 4922,
      "zep": 4923,
      "eros": 4924,
      "inno": 4925,
      "alia": 4926,
      "alist": 4927,
      "onder": 4928,
      "aty": 4929,
      "esg": 4930,
      "logo": 4931,
      "lobal": 4932,
      "ecto": 4933,
      "abu": 4934,
      "abel": 4935,
      "abil": 4936,
      "upp": 4937,
      "ebre": 4938,
      "esta": 4939,
      "idos": 4940,
      "bok": 4941,
      "bou": 4942,
      "beep": 4943,
      "beast": 4944,
      "smarth": 4945,
      "hound": 4946,
      "aves": 4947,
      "icker": 4948,
      "cru": 4949,
      "phere": 4950,
      "achat": 4951,
      "sway": 4952,
      "datac": 4953,
      "frees": 4954,
      "eflow": 4955,
      "effect": 4956,
      "marks": 4957,
      "mining": 4958,
      "lists": 4959,
      "trivi": 4960,
      "compliance": 4961,
      "worlds": 4962,
      "keys": 4963,
      "makers": 4964,
      "oga": 4965,
      "goods": 4966,
      "teams": 4967,
      "domin": 4968,
      "sonic": 4969,
      "investing": 4970,
      "charity": 4971,
      "blues": 4972,
      "dogs": 4973,
      "cryptot": 4974,
      "early": 4975,
      "steel": 4976,
      "ohmy": 4977,
      "whatsapp": 4978,
      "million": 4979,
      "butter": 4980,
      "cleaning": 4981,
      "farms": 4982,
      "charts": 4983,
      "address": 4984,
      "titan": 4985,
      "agroup": 4986,
      "deploy": 4987,
      "lytics": 4988,
      "warrior": 4989,
      "aan": 4990,
      "aas": 4991,
      "bop": 4992,
      "beck": 4993,
      "cum": 4994,
      "cure": 4995,
      "fw": 4996,
      "kb": 4997,
      "kev": 4998,
      "mist": 4999
    },
    "merges": [
      "e r",
      "i n",
      "a r",
      "a n",
      "a l",
      "s t",
      "e n",
      "o n",
      "o r",
      "a t",
      "e t",
      "r e",
      "i t",
      "c h",
      "e s",
      "e l",
      "r o",
      "i c",
      "a s",
      "l o",
      "l e",
      "r a",
      "c o",
      "a m",
      "t h",
      "i s",
      "e d",
      "a p",
      "in g",
      "l i",
      "u n",
      "a c",
      "d e",
      "o t",
      "i l",
      "u s",
      "u r",
      "o o",
      "a d",
      "r i",
      "en t",
      "e c",
      "a y",
      "a b",
      "e m",
      "a g",
      "o m",
      "o p",
      "i g",
      "i m",
      "u t",
      "s h",
      "s p",
      "i on",
      "m y",
      "o l",
      "a i",
      "p l",
      "v e",
      "o c",
      "v i",
      "d i",
      "ar t",
      "v er",
      "u p",
      "o s",
      "u b",
      "e b",
      "u m",
      "p ro",
      "u l",
      "e x",
      "an d",
      "a k",
      "o w",
      "e st",
      "c k",
      "e p",
      "q u",
      "i d",
      "u d",
      "t o",
      "m o",
      "b o",
      "s e",
      "al l",
      "t ra",
      "i f",
      "o f",
      "e w",
      "t e",
      "c on",
      "m e",
      "a st",
      "or t",
      "er s",
      "ar d",
      "h e",
      "i p",
      "t r",
      "g et",
      "b i",
      "l y",
      "a f",
      "b e",
      "in t",
      "w or",
      "in d",
      "s c",
      "g o",
      "c e",
      "l in",
      "ap p",
      "i a",
      "s m",
      "it y",
      "i r",
      "e y",
      "en d",
      "m a",
      "ar k",
      "at e",
      "co m",
      "j o",
      "an t",
      "as h",
      "y p",
      "g e",
      "es s",
      "h o",
      "f or",
      "ar e",
      "a v",
      "y o",
      "c l",
      "ec t",
      "i z",
      "ic k",
      "ac k",
      "i st",
      "h t",
      "as s",
      "b l",
      "c r",
      "p h",
      "th e",
      "f i",
      "t er",
      "el l",
      "p o",
      "d o",
      "i k",
      "u re",
      "m on",
      "b u",
      "c t",
      "b oo",
      "p er",
      "oo d",
      "a w",
      "f e",
      "at ion",
      "un d",
      "an g",
      "s y",
      "h er",
      "w e",
      "a ch",
      "e v",
      "i x",
      "s o",
      "b et",
      "i o",
      "u st",
      "s k",
      "n o",
      "m an",
      "p t",
      "on e",
      "a z",
      "i v",
      "m ed",
      "m et",
      "il l",
      "g u",
      "re s",
      "wor k",
      "g am",
      "p ay",
      "c ar",
      "i al",
      "f t",
      "lo w",
      "o k",
      "i e",
      "an k",
      "d er",
      "lo g",
      "oo l",
      "a h",
      "b r",
      "f in",
      "al th",
      "it al",
      "c lo",
      "s w",
      "or e",
      "n e",
      "f it",
      "a in",
      "ac t",
      "f l",
      "b er",
      "a x",
      "g ro",
      "g en",
      "b it",
      "d at",
      "b ot",
      "a ut",
      "f o",
      "c al",
      "d ig",
      "a u",
      "m at",
      "s er",
      "ic e",
      "boo k",
      "in e",
      "w h",
      "it e",
      "p r",
      "f re",
      "d y",
      "n et",
      "t im",
      "e k",
      "co in",
      "v el",
      "sm art",
      "w eb",
      "ch at",
      "d es",
      "ig n",
      "is h",
      "i de",
      "ac e",
      "l ab",
      "in k",
      "v o",
      "g ra",
      "c re",
      "s up",
      "ag e",
      "p e",
      "p ort",
      "ai r",
      "t y",
      "h om",
      "bo x",
      "he alth",
      "a il",
      "i ve",
      "an n",
      "s ch",
      "pl ay",
      "v is",
      "co l",
      "te ch",
      "s n",
      "an s",
      "r y",
      "clo ud",
      "e f",
      "c y",
      "ic s",
      "oc k",
      "an ce",
      "en s",
      "or y",
      "if y",
      "in s",
      "b y",
      "m ark",
      "m i",
      "at or",
      "sh op",
      "k e",
      "ul t",
      "u g",
      "cr yp",
      "n ot",
      "ig ht",
      "g r",
      "i b",
      "as y",
      "h ub",
      "lo ck",
      "m in",
      "on g",
      "re am",
      "o d",
      "m er",
      "f low",
      "sp ort",
      "lin k",
      "en g",
      "c le",
      "as k",
      "s im",
      "u e",
      "s al",
      "lo t",
      "er t",
      "n ect",
      "d r",
      "a o",
      "al k",
      "h el",
      "c or",
      "m s",
      "l d",
      "as e",
      "l et",
      "at ch",
      "o ut",
      "g ht",
      "d u",
      "m ent",
      "m ar",
      "g re",
      "at s",
      "ex t",
      "m ind",
      "lin e",
      "y s",
      "an c",
      "n ew",
      "of t",
      "li st",
      "l u",
      "ar n",
      "s oc",
      "s ol",
      "d ay",
      "n ow",
      "tra ck",
      "dig ital",
      "i es",
      "at h",
      "e z",
      "ab le",
      "is e",
      "i re",
      "t ri",
      "di o",
      "a de",
      "d el",
      "com p",
      "g y",
      "st r",
      "un t",
      "b ank",
      "ec k",
      "pl an",
      "yo ur",
      "p re",
      "m us",
      "b al",
      "am p",
      "l a",
      "f y",
      "t u",
      "it h",
      "d s",
      "li fe",
      "ion s",
      "co de",
      "c ard",
      "p ar",
      "c ap",
      "b ud",
      "s ec",
      "ar m",
      "n er",
      "b ra",
      "b est",
      "s a",
      "g pt",
      "con t",
      "f ood",
      "de v",
      "d oc",
      "cl ub",
      "in o",
      "s u",
      "w all",
      "vi ew",
      "f ind",
      "k o",
      "re al",
      "p i",
      "f r",
      "con nect",
      "ow n",
      "g ol",
      "us e",
      "pl us",
      "e asy",
      "in st",
      "p et",
      "b ar",
      "h a",
      "c ent",
      "ur n",
      "d is",
      "t op",
      "il d",
      "ser v",
      "mark et",
      "p ri",
      "ro l",
      "on t",
      "h u",
      "m ag",
      "int er",
      "v a",
      "at t",
      "i ver",
      "v al",
      "l and",
      "wor ld",
      "z z",
      "st ar",
      "f f",
      "m ap",
      "b us",
      "s af",
      "sup er",
      "ro w",
      "re ad",
      "of f",
      "p le",
      "soc ial",
      "m ot",
      "p s",
      "th er",
      "e ch",
      "re d",
      "if t",
      "st u",
      "ar y",
      "vi r",
      "i an",
      "b le",
      "c are",
      "jo b",
      "y t",
      "al s",
      "yo u",
      "ri d",
      "res s",
      "to k",
      "k ey",
      "ar ch",
      "un g",
      "w in",
      "r et",
      "m em",
      "f li",
      "m ak",
      "c as",
      "ve st",
      "ast er",
      "ch eck",
      "l es",
      "c ash",
      "o g",
      "on d",
      "k er",
      "t or",
      "z e",
      "i er",
      "h ot",
      "k it",
      "p art",
      "ro p",
      "bi le",
      "op en",
      "v en",
      "li ve",
      "ing s",
      "u k",
      "c an",
      "st er",
      "f le",
      "d ri",
      "n ess",
      "v ent",
      "b lock",
      "g lo",
      "b re",
      "f ul",
      "o ur",
      "for m",
      "s el",
      "t el",
      "er o",
      "gam e",
      "an y",
      "d a",
      "ow er",
      "g ood",
      "b a",
      "w ay",
      "te am",
      "g er",
      "on line",
      "ic a",
      "gro up",
      "bo ard",
      "et h",
      "sy n",
      "w ell",
      "t a",
      "k a",
      "co ach",
      "l er",
      "t v",
      "e ver",
      "s s",
      "tr u",
      "ma il",
      "f er",
      "f am",
      "mon ey",
      "cryp to",
      "c li",
      "ch ain",
      "le g",
      "o x",
      "us h",
      "p ol",
      "n ft",
      "ic al",
      "p a",
      "lo cal",
      "et s",
      "ver se",
      "es h",
      "w a",
      "c i",
      "m en",
      "i q",
      "on s",
      "d om",
      "f ri",
      "r ent",
      "le arn",
      "ic o",
      "f un",
      "p y",
      "hom e",
      "at er",
      "c am",
      "wall et",
      "b ack",
      "c ity",
      "e e",
      "p al",
      "ag er",
      "sp ace",
      "k i",
      "tra vel",
      "st or",
      "g l",
      "le ad",
      "ak e",
      "ar i",
      "ot o",
      "en ce",
      "c ra",
      "st ream",
      "t re",
      "e g",
      "ev ent",
      "t w",
      "j ust",
      "y n",
      "mo bile",
      "li v",
      "j i",
      "s oft",
      "oo k",
      "s i",
      "c a",
      "b on",
      "b ro",
      "c ast",
      "vi de",
      "l it",
      "an a",
      "el d",
      "c er",
      "p ass",
      "p os",
      "t i",
      "sp ot",
      "f u",
      "n y",
      "p ark",
      "f il",
      "th eb",
      "r it",
      "s on",
      "z en",
      "or d",
      "mus ic",
      "c at",
      "t on",
      "ool s",
      "n a",
      "f ast",
      "o b",
      "al e",
      "h y",
      "en er",
      "gam es",
      "ch e",
      "ra ck",
      "c u",
      "h ar",
      "w are",
      "j ect",
      "t s",
      "ed u",
      "v r",
      "f ir",
      "gro w",
      "st em",
      "sh ip",
      "j a",
      "d ing",
      "or s",
      "il y",
      "gre en",
      "or g",
      "p ix",
      "com m",
      "s l",
      "u x",
      "p ower",
      "vir tu",
      "f ly",
      "h app",
      "r on",
      "sk y",
      "des ign",
      "glo bal",
      "h i",
      "y a",
      "sp e",
      "b ab",
      "th em",
      "li f",
      "qu e",
      "j u",
      "o u",
      "el s",
      "ro ck",
      "c ur",
      "d ra",
      "is s",
      "k id",
      "st ore",
      "li ght",
      "po st",
      "n i",
      "b an",
      "dat a",
      "c el",
      "bi z",
      "bl ack",
      "th es",
      "de x",
      "r en",
      "p ra",
      "ver s",
      "me et",
      "ro om",
      "tr y",
      "d en",
      "un ch",
      "b t",
      "tim e",
      "h yp",
      "st ory",
      "it s",
      "c all",
      "h um",
      "in vest",
      "em ent",
      "f ut",
      "pl y",
      "z a",
      "ex p",
      "ch ar",
      "bl u",
      "m aster",
      "w w",
      "t al",
      "s ur",
      "qu ick",
      "ic es",
      "m ate",
      "r al",
      "z y",
      "bud dy",
      "vi d",
      "b il",
      "r un",
      "b all",
      "b ri",
      "g a",
      "k y",
      "s ign",
      "c c",
      "d it",
      "bi r",
      "n ext",
      "s ub",
      "or n",
      "ot e",
      "ho use",
      "bu y",
      "fri end",
      "w atch",
      "bus in",
      "m it",
      "st ock",
      "im e",
      "p at",
      "f ra",
      "ma x",
      "bu ild",
      "n am",
      "br and",
      "lab s",
      "in a",
      "do g",
      "k u",
      "st ack",
      "virtu al",
      "p an",
      "qu est",
      "b ig",
      "b en",
      "t est",
      "h ab",
      "s co",
      "sn ap",
      "p n",
      "w ar",
      "lo ve",
      "b el",
      "ail y",
      "her e",
      "an ge",
      "ho st",
      "mat ch",
      "om e",
      "po int",
      "q r",
      "f und",
      "f act",
      "k s",
      "t en",
      "t alk",
      "le d",
      "p op",
      "aut o",
      "cryp t",
      "stu dio",
      "h ol",
      "i li",
      "t ax",
      "pro ject",
      "m u",
      "d ream",
      "v ol",
      "r u",
      "s et",
      "b lo",
      "m ic",
      "f an",
      "it ch",
      "e ar",
      "th ep",
      "fi re",
      "jo urn",
      "ann er",
      "r ic",
      "w ard",
      "st art",
      "n at",
      "u ro",
      "wor d",
      "l ay",
      "p in",
      "st ud",
      "ut ions",
      "o v",
      "tra in",
      "l ing",
      "w ith",
      "u al",
      "p ers",
      "t ap",
      "b or",
      "it or",
      "i um",
      "p ad",
      "er a",
      "sh ar",
      "bra in",
      "r is",
      "e co",
      "l aw",
      "le ct",
      "l ess",
      "st e",
      "gu ide",
      "mag ic",
      "f lo",
      "f ac",
      "tra de",
      "z er",
      "in c",
      "b ase",
      "t ask",
      "iz e",
      "sport s",
      "sc ri",
      "vis ion",
      "h al",
      "m r",
      "s en",
      "ar a",
      "em e",
      "m el",
      "i le",
      "int el",
      "k ing",
      "z o",
      "gra m",
      "sch ool",
      "p ic",
      "an al",
      "all y",
      "her o",
      "new s",
      "et y",
      "ass ist",
      "g i",
      "r at",
      "t ag",
      "f a",
      "s qu",
      "or a",
      "le y",
      "wh at",
      "em p",
      "ub e",
      "find er",
      "s un",
      "co unt",
      "d aily",
      "d own",
      "v et",
      "fe ed",
      "p ap",
      "ac c",
      "th ec",
      "c ro",
      "ad s",
      "ra p",
      "sh are",
      "i ch",
      "t ab",
      "re c",
      "h r",
      "pl at",
      "d rop",
      "h and",
      "lo ud",
      "em o",
      "sy stem",
      "n u",
      "ig h",
      "c ir",
      "an o",
      "p ul",
      "log y",
      "ad o",
      "at a",
      "b as",
      "y u",
      "net work",
      "m art",
      "ock et",
      "c art",
      "j am",
      "p ot",
      "de al",
      "ex per",
      "tok en",
      "d ash",
      "f arm",
      "s am",
      "no v",
      "g n",
      "bet ter",
      "c amp",
      "el y",
      "u ra",
      "cl ick",
      "tr ans",
      "ad i",
      "or der",
      "a im",
      "ai d",
      "ins ur",
      "fle x",
      "s it",
      "po d",
      "c ul",
      "busin ess",
      "m om",
      "track er",
      "b ur",
      "fi x",
      "g ar",
      "k n",
      "w ise",
      "st at",
      "happ y",
      "t ur",
      "se arch",
      "cy ber",
      "sal es",
      "er y",
      "hel p",
      "o h",
      "k ar",
      "m p",
      "hel lo",
      "b ol",
      "c p",
      "m d",
      "t ick",
      "sw ap",
      "f ol",
      "le x",
      "n ex",
      "th el",
      "lo ad",
      "sh ow",
      "v y",
      "u ch",
      "g al",
      "ap i",
      "du ct",
      "b b",
      "med ia",
      "g ot",
      "l an",
      "ac ade",
      "ur u",
      "con s",
      "fit ness",
      "wh ats",
      "to ur",
      "man ager",
      "p ub",
      "ke ep",
      "re ct",
      "port al",
      "m il",
      "he y",
      "fl u",
      "gra ph",
      "p en",
      "if i",
      "be aut",
      "fo x",
      "th ew",
      "h am",
      "it a",
      "i us",
      "n ut",
      "ra d",
      "syn c",
      "fre e",
      "tr ust",
      "k r",
      "vi p",
      "z i",
      "in di",
      "e at",
      "t ext",
      "fam ily",
      "d n",
      "co ver",
      "li o",
      "l ar",
      "p ing",
      "p ick",
      "l s",
      "fin ance",
      "g as",
      "h or",
      "st re",
      "am e",
      "l as",
      "bu il",
      "work s",
      "b ul",
      "t t",
      "m c",
      "th ed",
      "sp ac",
      "best of",
      "ap e",
      "d b",
      "m or",
      "m ix",
      "ch ange",
      "op s",
      "m as",
      "b ill",
      "al t",
      "sc an",
      "jo y",
      "on lin",
      "un ity",
      "col lect",
      "sim ple",
      "t om",
      "at o",
      "os s",
      "ation s",
      "met a",
      "fir st",
      "d on",
      "j e",
      "it o",
      "pro m",
      "er v",
      "et ra",
      "sh e",
      "d ent",
      "h op",
      "be e",
      "serv ice",
      "t le",
      "b rid",
      "l l",
      "x x",
      "re p",
      "so und",
      "er e",
      "ur ch",
      "ag ent",
      "jo in",
      "des k",
      "el e",
      "ra m",
      "pri v",
      "ic t",
      "pro per",
      "g g",
      "b ut",
      "c s",
      "w is",
      "d ot",
      "g ift",
      "k en",
      "ch o",
      "di rect",
      "af e",
      "acade my",
      "k now",
      "an i",
      "am a",
      "ec on",
      "re g",
      "cra ft",
      "b s",
      "m ac",
      "st y",
      "ad a",
      "gol d",
      "k t",
      "k in",
      "cont rol",
      "at es",
      "j et",
      "ar s",
      "em y",
      "c row",
      "f ort",
      "l ic",
      "tri p",
      "o st",
      "w r",
      "ag en",
      "m t",
      "w er",
      "lo y",
      "h on",
      "at her",
      "im p",
      "end er",
      "iver y",
      "i i",
      "t in",
      "lo op",
      "th ing",
      "vide o",
      "p as",
      "co ur",
      "il ity",
      "med i",
      "m ult",
      "s av",
      "co un",
      "pl ace",
      "pro duct",
      "f fe",
      "k al",
      "cle an",
      "t ar",
      "el o",
      "qu iz",
      "p ocket",
      "v in",
      "ph oto",
      "c ore",
      "k l",
      "w iz",
      "ab s",
      "mo on",
      "bab y",
      "s um",
      "he ad",
      "f ish",
      "et o",
      "un iver",
      "jo di",
      "h an",
      "i ent",
      "t ip",
      "li m",
      "gen er",
      "cre at",
      "c ri",
      "al ph",
      "ur ity",
      "oo m",
      "f ar",
      "g ig",
      "p ed",
      "s ell",
      "op t",
      "s an",
      "ut e",
      "fi le",
      "insur ance",
      "n or",
      "ac y",
      "sh i",
      "sec ure",
      "gol f",
      "f oc",
      "o ver",
      "p ag",
      "sk ill",
      "gy m",
      "ro s",
      "cre dit",
      "p ack",
      "ak er",
      "fo ot",
      "ph ot",
      "bit coin",
      "m al",
      "sp ark",
      "f air",
      "am er",
      "qu ant",
      "mon y",
      "ct ion",
      "d in",
      "job s",
      "c ann",
      "cl ass",
      "vo ice",
      "part y",
      "l at",
      "on ly",
      "co ok",
      "de ep",
      "c ust",
      "ch a",
      "ener gy",
      "f ect",
      "g on",
      "k on",
      "pl anner",
      "s il",
      "in sp",
      "or k",
      "pers on",
      "b in",
      "m ad",
      "b n",
      "al a",
      "sol utions",
      "d l",
      "w o",
      "al ert",
      "st a",
      "un i",
      "ig o",
      "sc re",
      "b es",
      "h ire",
      "ar o",
      "en e",
      "he art",
      "d et",
      "v it",
      "en c",
      "lu x",
      "e qu",
      "bo dy",
      "m m",
      "u it",
      "th et",
      "um p",
      "s ex",
      "in fo",
      "y e",
      "y er",
      "on es",
      "ic on",
      "de m",
      "tr an",
      "g h",
      "re view",
      "fin anc",
      "ever y",
      "p u",
      "ec tr",
      "p d",
      "al i",
      "ra in",
      "a j",
      "f ro",
      "n om",
      "w ater",
      "ins ight",
      "hum an",
      "fut ure",
      "w el",
      "if ic",
      "fo und",
      "w alk",
      "eng ine",
      "hyp er",
      "beaut y",
      "z one",
      "sh ot",
      "aut om",
      "r ing",
      "t ool",
      "w ed",
      "w rit",
      "re e",
      "co ffe",
      "cr m",
      "not es",
      "cas ino",
      "t ik",
      "x y",
      "al o",
      "st ri",
      "en a",
      "p ath",
      "v pn",
      "in fin",
      "mo vi",
      "fre sh",
      "mak er",
      "n t",
      "n um",
      "fli x",
      "l ub",
      "w i",
      "es p",
      "is m",
      "f us",
      "g oo",
      "un it",
      "pl ant",
      "s le",
      "v an",
      "ho us",
      "str u",
      "mic ro",
      "h ack",
      "ch urch",
      "th is",
      "p ur",
      "sel f",
      "b d",
      "t ot",
      "an im",
      "d ro",
      "s end",
      "ag o",
      "ch art",
      "mo d",
      "au th",
      "pi lot",
      "et er",
      "ad v",
      "ri ght",
      "serv ices",
      "t es",
      "bir d",
      "c ad",
      "w ap",
      "lo ok",
      "ut ion",
      "so ur",
      "so ul",
      "pr int",
      "c ut",
      "n s",
      "em ail",
      "c it",
      "f x",
      "th ink",
      "io us",
      "not e",
      "dri ve",
      "l us",
      "fi eld",
      "we alth",
      "cust om",
      "m es",
      "m int",
      "ent s",
      "ark et",
      "card s",
      "rol l",
      "i os",
      "l am",
      "cent er",
      "i am",
      "wa ve",
      "ch er",
      "sh o",
      "col or",
      "saf e",
      "buil der",
      "h q",
      "t yp",
      "ro ad",
      "ri de",
      "ip e",
      "fl ash",
      "va ult",
      "p g",
      "et e",
      "cent ral",
      "market ing",
      "yt ics",
      "m id",
      "gu ard",
      "st ep",
      "for ce",
      "spe ed",
      "d d",
      "p or",
      "x i",
      "y l",
      "at ri",
      "op le",
      "mo bil",
      "if e",
      "b and",
      "tru ck",
      "a a",
      "r t",
      "ed ia",
      "un e",
      "ast ro",
      "vent ure",
      "g an",
      "r um",
      "po ker",
      "men u",
      "intel li",
      "proper ty",
      "g uru",
      "p p",
      "ing o",
      "prom pt",
      "g em",
      "h ow",
      "s ing",
      "in n",
      "en se",
      "book s",
      "rack er",
      "h n",
      "b at",
      "w ood",
      "st ra",
      "lo c",
      "ri st",
      "bi o",
      "d j",
      "t ro",
      "li on",
      "hot el",
      "rock et",
      "k an",
      "k om",
      "p ool",
      "z h",
      "b ad",
      "s ite",
      "all et",
      "bl ue",
      "org an",
      "journ al",
      "v es",
      "und er",
      "h igh",
      "t ak",
      "at ed",
      "re l",
      "re ward",
      "sc ore",
      "b c",
      "f s",
      "g ard",
      "z ap",
      "app s",
      "l um",
      "m is",
      "z ero",
      "ind er",
      "boo st",
      "foc us",
      "cap ital",
      "leg al",
      "g le",
      "o int",
      "b ay",
      "c lin",
      "ch i",
      "ch ef",
      "ad vis",
      "sp ro",
      "a ud",
      "f ab",
      "m ess",
      "t ools",
      "ent er",
      "ep t",
      "let s",
      "doc tor",
      "b id",
      "c ert",
      "s om",
      "in i",
      "id ent",
      "del ivery",
      "d ate",
      "r an",
      "w on",
      "th at",
      "af f",
      "g os",
      "n d",
      "th o",
      "vi a",
      "tra ct",
      "a is",
      "e o",
      "w ind",
      "z u",
      "ch en",
      "im ag",
      "stud y",
      "d ar",
      "g s",
      "iz er",
      "m l",
      "ra c",
      "sh ift",
      "hom es",
      "p ress",
      "re v",
      "ot es",
      "ia o",
      "grow th",
      "scri pt",
      "cul ator",
      "a qu",
      "ver t",
      "mat h",
      "bud get",
      "pix el",
      "pap er",
      "p res",
      "q i",
      "s we",
      "w al",
      "et a",
      "exp ress",
      "p m",
      "ra dio",
      "im o",
      "oc ial",
      "ist er",
      "b ag",
      "g rid",
      "p aw",
      "on y",
      "ur al",
      "ad d",
      "stre et",
      "g ir",
      "am i",
      "ig ital",
      "stu di",
      "a ve",
      "c n",
      "f ant",
      "st op",
      "b h",
      "b x",
      "p and",
      "in es",
      "ap k",
      "li k",
      "gen ius",
      "cle ar",
      "s ar",
      "s ide",
      "re port",
      "cre ator",
      "eb ook",
      "sim pl",
      "comm unity",
      "tal ent",
      "i ence",
      "n av",
      "t ing",
      "or es",
      "ur y",
      "sh a",
      "av en",
      "man ag",
      "ib le",
      "at i",
      "co ol",
      "sy s",
      "ment s",
      "plan et",
      "learn ing",
      "s and",
      "ed ge",
      "om n",
      "ol d",
      "b ell",
      "op er",
      "mo v",
      "mat ri",
      "scre en",
      "n ation",
      "ex pl",
      "he al",
      "kid s",
      "d ol",
      "ub er",
      "ma ch",
      "comp any",
      "su ite",
      "off ice",
      "g or",
      "x r",
      "ul a",
      "sup port",
      "cons ult",
      "m os",
      "w ik",
      "el ectr",
      "oo p",
      "ag u",
      "play er",
      "m b",
      "s at",
      "x t",
      "bu zz",
      "c in",
      "h ip",
      "l ish",
      "est ate",
      "f est",
      "f ace",
      "h ash",
      "i j",
      "s in",
      "w il",
      "am o",
      "ab et",
      "om o",
      "ard s",
      "n in",
      "v ac",
      "ang el",
      "liv ing",
      "b ed",
      "j ack",
      "s ong",
      "t ers",
      "en o",
      "ra y",
      "ut or",
      "c up",
      "c ult",
      "l ang",
      "w est",
      "be at",
      "com mer",
      "fli ght",
      "u z",
      "w ire",
      "an e",
      "st o",
      "s lot",
      "tra il",
      "dat ing",
      "ful l",
      "g ate",
      "h ive",
      "j ar",
      "de ck",
      "em an",
      "brid ge",
      "g it",
      "h unt",
      "st ick",
      "aw ay",
      "gen ie",
      "hab it",
      "k k",
      "u i",
      "us ic",
      "plat form",
      "a ic",
      "c v",
      "me al",
      "ass et",
      "med ic",
      "ill a",
      "ne ar",
      "c ab",
      "h at",
      "im m",
      "bi ble",
      "crow d",
      "r x",
      "y st",
      "eb o",
      "mon itor",
      "act ion",
      "n es",
      "n el",
      "r m",
      "on a",
      "pl ac",
      "lu ck",
      "l un",
      "r ics",
      "s of",
      "t ec",
      "it ion",
      "am az",
      "ap y",
      "us a",
      "cap t",
      "tick et",
      "j un",
      "p c",
      "y al",
      "ro bot",
      "act iv",
      "la unch",
      "sec urity",
      "ar c",
      "et ch",
      "lo v",
      "di an",
      "we ather",
      "w s",
      "ap t",
      "il le",
      "em on",
      "per fect",
      "cont ent",
      "person al",
      "b ers",
      "d m",
      "k ick",
      "u c",
      "ri p",
      "ri ve",
      "mo del",
      "sn ow",
      "fle et",
      "journ ey",
      "g ent",
      "at ing",
      "train ing",
      "p sy",
      "ac count",
      "and er",
      "do or",
      "acc ess",
      "h un",
      "p ep",
      "lo an",
      "de c",
      "mo ve",
      "pul se",
      "f id",
      "v n",
      "on et",
      "or i",
      "es e",
      "dom ain",
      "b row",
      "d ao",
      "g est",
      "j s",
      "r s",
      "et te",
      "ma de",
      "au di",
      "ear th",
      "a e",
      "g b",
      "l en",
      "lo s",
      "and o",
      "se ed",
      "sol ar",
      "pol y",
      "cir cle",
      "b ow",
      "g t",
      "y i",
      "bre ak",
      "a it",
      "m oo",
      "ur s",
      "sh ort",
      "di e",
      "tr end",
      "fr ont",
      "sle ep",
      "d le",
      "k at",
      "re mot",
      "ad min",
      "ri ch",
      "ve y",
      "bri ght",
      "financ ial",
      "c m",
      "ent o",
      "ay a",
      "ge o",
      "gro und",
      "friend s",
      "a vi",
      "g es",
      "in f",
      "ep ay",
      "bu ck",
      "b oss",
      "j n",
      "p ure",
      "w y",
      "z ip",
      "un ic",
      "ai re",
      "c ub",
      "m ir",
      "r and",
      "v u",
      "z b",
      "st ay",
      "th en",
      "ad or",
      "log ic",
      "serv ic",
      "jodi i",
      "c ell",
      "f m",
      "i ra",
      "t it",
      "sp ir",
      "pro fit",
      "te ach",
      "iz z",
      "vo ic",
      "sec ret",
      "fu el",
      "b un",
      "l ast",
      "r as",
      "s em",
      "w ash",
      "al es",
      "ap ro",
      "f ash",
      "g p",
      "h d",
      "h it",
      "t ast",
      "ch rist",
      "ew s",
      "pe ople",
      "gre at",
      "fact ory",
      "d an",
      "f c",
      "n ic",
      "t em",
      "in nov",
      "st and",
      "ac on",
      "ex change",
      "anal ytics",
      "f oo",
      "at ic",
      "le an",
      "ag es",
      "os e",
      "tra ding",
      "oft ware",
      "a er",
      "k ai",
      "p ac",
      "li p",
      "go d",
      "car bon",
      "port s",
      "ha us",
      "off ic",
      "s ay",
      "es ign",
      "eb ox",
      "pro t",
      "tra der",
      "ik a",
      "fo lio",
      "d or",
      "g op",
      "m n",
      "r int",
      "um e",
      "te k",
      "di a",
      "me g",
      "get her",
      "end ar",
      "m all",
      "n ight",
      "t an",
      "y es",
      "id er",
      "cl ar",
      "h k",
      "q q",
      "u ck",
      "w an",
      "ag ro",
      "saf ety",
      "fli p",
      "exper t",
      "b log",
      "d ad",
      "i ot",
      "s ab",
      "t un",
      "v end",
      "ap s",
      "li ft",
      "sp ec",
      "bo y",
      "au dio",
      "sim ply",
      "spe ak",
      "fus ion",
      "n ey",
      "v as",
      "es k",
      "co sm",
      "ol utions",
      "id o",
      "to uch",
      "med ical",
      "e uro",
      "j d",
      "ab is",
      "ep ic",
      "n ers",
      "el f",
      "ol a",
      "mo b",
      "ist a",
      "book ing",
      "ifi ed",
      "imp act",
      "s r",
      "t am",
      "ch ang",
      "el a",
      "op tim",
      "ort g",
      "be ach",
      "ne uro",
      "sa ve",
      "blo om",
      "d c",
      "f ig",
      "k et",
      "st on",
      "ap o",
      "di v",
      "ser ver",
      "a ur",
      "b ub",
      "w ol",
      "y m",
      "or o",
      "re cor",
      "ed it",
      "oc e",
      "az e",
      "sw ift",
      "soft ware",
      "a q",
      "st ro",
      "li fy",
      "vi v",
      "ew or",
      "be y",
      "ww w",
      "tin y",
      "g of",
      "w he",
      "con c",
      "end a",
      "we ek",
      "gam ing",
      "vis ual",
      "tre e",
      "d t",
      "r ub",
      "s ens",
      "w it",
      "ur ban",
      "ul ar",
      "gr up",
      "read y",
      "fil m",
      "assist ant",
      "gard en",
      "b att",
      "k h",
      "m ay",
      "n g",
      "n an",
      "p el",
      "s ent",
      "in te",
      "ic an",
      "is ion",
      "be ar",
      "ect or",
      "ax i",
      "cre w",
      "pe ak",
      "vis it",
      "block chain",
      "cli p",
      "cli ent",
      "b ak",
      "f ans",
      "h ist",
      "p ip",
      "p age",
      "t l",
      "w oo",
      "st one",
      "as a",
      "ed i",
      "pl ug",
      "coffe e",
      "f al",
      "p ush",
      "u u",
      "w ish",
      "pro to",
      "ph one",
      "we ar",
      "d g",
      "e arn",
      "g iv",
      "k am",
      "m ai",
      "w om",
      "li e",
      "de mo",
      "go al",
      "f el",
      "l ad",
      "r yp",
      "s ig",
      "ac ion",
      "sy m",
      "cal culator",
      "fash ion",
      "w ho",
      "ab o",
      "em a",
      "vi z",
      "mak e",
      "b ah",
      "k ra",
      "m ood",
      "o z",
      "se e",
      "for ge",
      "g el",
      "h s",
      "m x",
      "in er",
      "ok en",
      "well ness",
      "system s",
      "d x",
      "i as",
      "in vent",
      "st ation",
      "it i",
      "ro ut",
      "ra di",
      "co py",
      "di et",
      "ep ort",
      "ey e",
      "act ive",
      "i ro",
      "r ans",
      "u th",
      "w ild",
      "er p",
      "al og",
      "st ats",
      "it er",
      "el ev",
      "az y",
      "dr ink",
      "cor p",
      "fol low",
      "m am",
      "ud o",
      "sc or",
      "ant s",
      "ure s",
      "az a",
      "g ri",
      "l end",
      "m iss",
      "o on",
      "t ex",
      "an ch",
      "le vel",
      "sh u",
      "ate ch",
      "iv a",
      "dent al",
      "e as",
      "j j",
      "em er",
      "qu al",
      "to day",
      "mo bi",
      "go v",
      "ach t",
      "health y",
      "won der",
      "commer ce",
      "d ark",
      "i lo",
      "m ore",
      "n is",
      "s v",
      "v ot",
      "w ow",
      "at om",
      "pro c",
      "ge ek",
      "ter y",
      "we ed",
      "ev ol",
      "log ist",
      "fre ed",
      "co up",
      "li x",
      "ri ver",
      "art s",
      "edu c",
      "sco ut",
      "stud ent",
      "d am",
      "h oo",
      "p it",
      "s ug",
      "en et",
      "et her",
      "de f",
      "us er",
      "ag ue",
      "im a",
      "eb u",
      "bo at",
      "sal e",
      "down load",
      "reward s",
      "manag ement",
      "v ill",
      "ch ron",
      "co st",
      "co des",
      "is land",
      "sc al",
      "dri ver",
      "agen cy",
      "expl or",
      "l t",
      "l or",
      "r r",
      "v ar",
      "re ach",
      "le m",
      "ep h",
      "bet s",
      "coin s",
      "bro ker",
      "she et",
      "h ex",
      "l ap",
      "t x",
      "w here",
      "is a",
      "sp lit",
      "di es",
      "eb ot",
      "ly n",
      "ge ar",
      "ick et",
      "gen ce",
      "cont act",
      "char ge",
      "rap id",
      "g oc",
      "p un",
      "u de",
      "con tract",
      "ik e",
      "bot s",
      "bre w",
      "k as",
      "k ol",
      "l on",
      "n ur",
      "v ic",
      "v oc",
      "ar th",
      "et ech",
      "co p",
      "un a",
      "de als",
      "be er",
      "cl aim",
      "stru ct",
      "k ind",
      "m ut",
      "t m",
      "z el",
      "ad er",
      "app er",
      "pub lic",
      "foot ball",
      "quant um",
      "l r",
      "n os",
      "co d",
      "ver y",
      "eb e",
      "wor ds",
      "tim es",
      "i w",
      "r ust",
      "u a",
      "b os",
      "g at",
      "r us",
      "s q",
      "it es",
      "for ms",
      "ell er",
      "gu est",
      "clo ck",
      "tech no",
      "sa as",
      "b ai",
      "f av",
      "h ard",
      "h aw",
      "ra k",
      "ak a",
      "by te",
      "gener ator",
      "sour ce",
      "f n",
      "g om",
      "n est",
      "v ed",
      "v ital",
      "w id",
      "z k",
      "z oo",
      "at las",
      "re st",
      "ch ann",
      "de st",
      "de vel",
      "ig er",
      "se o",
      "app le",
      "e u",
      "f at",
      "h en",
      "l n",
      "et t",
      "am s",
      "th read",
      "sp ar",
      "vi be",
      "fe el",
      "lit tle",
      "sen se",
      "sty le",
      "advis or",
      "j an",
      "j es",
      "r ank",
      "t ail",
      "v s",
      "co s",
      "de p",
      "vi o",
      "pro f",
      "ect ion",
      "comp an",
      "k el",
      "o y",
      "p up",
      "w u",
      "or ig",
      "di am",
      "id a",
      "doc s",
      "map s",
      "pra ct",
      "fant asy",
      "d ub",
      "f ur",
      "h l",
      "h ay",
      "on o",
      "et ic",
      "ed o",
      "and a",
      "mo der",
      "sc ape",
      "vo x",
      "event s",
      "c w",
      "d oo",
      "g un",
      "l ong",
      "m ing",
      "st ag",
      "st aff",
      "as i",
      "co der",
      "co gn",
      "ap ay",
      "il li",
      "ab ility",
      "sp in",
      "and y",
      "ip s",
      "iv es",
      "mot ion",
      "mom ent",
      "i or",
      "l ac",
      "n ik",
      "t own",
      "in v",
      "li ke",
      "mon key",
      "day s",
      "b om",
      "h air",
      "m ex",
      "t able",
      "en ow",
      "ap pl",
      "tr on",
      "iv o",
      "cal c",
      "col lab",
      "eng lish",
      "care er",
      "proto col",
      "d ic",
      "n on",
      "q a",
      "t p",
      "w ing",
      "x p",
      "ar ia",
      "re at",
      "el ab",
      "ro t",
      "le af",
      "sm s",
      "ber ry",
      "tim er",
      "vo y",
      "ug h",
      "mot or",
      "coach ing",
      "a ver",
      "k le",
      "l ass",
      "u o",
      "er n",
      "ar io",
      "el ine",
      "ol ar",
      "ew ay",
      "ell a",
      "stor ies",
      "univer s",
      "cann abis",
      "bey ond",
      "b k",
      "f en",
      "g m",
      "h ai",
      "j ew",
      "x o",
      "at ar",
      "li qu",
      "op ay",
      "ol l",
      "ul tim",
      "sm ith",
      "az z",
      "br ick",
      "fl or",
      "pr ic",
      "ment or",
      "lay er",
      "spir it",
      "b ing",
      "d un",
      "r or",
      "al y",
      "tel e",
      "stat us",
      "erv ice",
      "atri mony",
      "f is",
      "g ur",
      "m un",
      "m ortg",
      "n ap",
      "p ik",
      "s d",
      "t c",
      "t ai",
      "or te",
      "li br",
      "li ber",
      "sp l",
      "sp here",
      "dig it",
      "wh it",
      "ug ht",
      "pre mi",
      "mem ber",
      "cro ss",
      "i h",
      "k ur",
      "p li",
      "s ant",
      "on ey",
      "ch ool",
      "ch amp",
      "de e",
      "de fi",
      "sp y",
      "sp ect",
      "id s",
      "all en",
      "yo ut",
      "iz ed",
      "bu g",
      "work out",
      "pr ice",
      "link s",
      "par ent",
      "hon ey",
      "h as",
      "m ast",
      "r ate",
      "ar es",
      "al ex",
      "ch as",
      "co ut",
      "co pe",
      "op ia",
      "av a",
      "bit s",
      "dy nam",
      "esh op",
      "rec ip",
      "f ed",
      "g host",
      "j er",
      "s li",
      "y un",
      "ch ess",
      "ro ot",
      "ad el",
      "eb ank",
      "to do",
      "all er",
      "no de",
      "log in",
      "ath let",
      "part ner",
      "start up",
      "cover y",
      "b um",
      "d os",
      "e h",
      "m v",
      "u ite",
      "an z",
      "ra ft",
      "ud dy",
      "bi k",
      "ir on",
      "park ing",
      "clin ic",
      "gir l",
      "f ight",
      "o li",
      "er ing",
      "in ner",
      "as ino",
      "il a",
      "ph arm",
      "ber g",
      "cle ver",
      "yn c",
      "b ao",
      "i en",
      "z on",
      "ed e",
      "ap er",
      "est y",
      "se ek",
      "inst ant",
      "luck y",
      "d h",
      "k art",
      "t urn",
      "u dio",
      "ent re",
      "sh ub",
      "eb et",
      "mo de",
      "ew ork",
      "electr ic",
      "j in",
      "m im",
      "u y",
      "w av",
      "st ell",
      "ra vel",
      "ol y",
      "di fy",
      "pro p",
      "ow l",
      "tra c",
      "pa int",
      "busin es",
      "insight s",
      "studi os",
      "nation al",
      "a us",
      "a ig",
      "l is",
      "n c",
      "p ink",
      "le ague",
      "om y",
      "ion al",
      "car s",
      "br as",
      "sw itch",
      "ment al",
      "inter net",
      "read er",
      "lead er",
      "nut ri",
      "wed ding",
      "b is",
      "h ir",
      "i el",
      "l ak",
      "p es",
      "s os",
      "t at",
      "w at",
      "ab i",
      "ph on",
      "po k",
      "sk in",
      "met al",
      "pre p",
      "rent al",
      "lead s",
      "oce an",
      "d op",
      "g ed",
      "j as",
      "m ass",
      "m ik",
      "u is",
      "v c",
      "w p",
      "w her",
      "y an",
      "st ak",
      "ic y",
      "as c",
      "li ance",
      "se gu",
      "bi ke",
      "cal endar",
      "mat ic",
      "soc i",
      "wiz ard",
      "f ah",
      "n it",
      "p ig",
      "p ak",
      "t oo",
      "t we",
      "v l",
      "ch an",
      "el ink",
      "ab ot",
      "pl ann",
      "du ck",
      "pri me",
      "fra me",
      "econ nect",
      "wer k",
      "unit ed",
      "intelli gence",
      "h ood",
      "n r",
      "p ast",
      "ra il",
      "co me",
      "ad y",
      "se y",
      "app y",
      "boo m",
      "star s",
      "fil es",
      "rad ar",
      "matri mony",
      "whe el",
      "d al",
      "h is",
      "h ook",
      "k um",
      "n f",
      "q ur",
      "v ing",
      "w t",
      "y um",
      "as p",
      "ri x",
      "ion e",
      "di d",
      "wor th",
      "jo hn",
      "ant i",
      "av al",
      "so li",
      "str ong",
      "pat ient",
      "ris k",
      "squ ad",
      "tot al",
      "g ive",
      "k un",
      "w es",
      "ra de",
      "vi e",
      "art y",
      "ip ay",
      "end o",
      "ist ry",
      "eng er",
      "real ity",
      "gol den",
      "infin ity",
      "cult ure",
      "hun ter",
      "g c",
      "i lot",
      "p ho",
      "p itch",
      "r d",
      "w ill",
      "ing er",
      "pro of",
      "af ter",
      "ev o",
      "med it",
      "mind er",
      "keep er",
      "b ang",
      "c atch",
      "f on",
      "m h",
      "n ing",
      "r ise",
      "w l",
      "re el",
      "re sp",
      "el og",
      "oc al",
      "to gether",
      "ho d",
      "fi ve",
      "gu ar",
      "fl ux",
      "pe er",
      "real estate",
      "sur f",
      "p ut",
      "p orn",
      "s or",
      "s id",
      "s ix",
      "v ote",
      "w ag",
      "z t",
      "le e",
      "li a",
      "ot a",
      "ec loud",
      "ak i",
      "ast ic",
      "ir d",
      "bl es",
      "gu id",
      "pr is",
      "comp ut",
      "comp ass",
      "ther e",
      "camp us",
      "chann el",
      "s b",
      "w ine",
      "in dex",
      "on ic",
      "it ies",
      "ch em",
      "ro yal",
      "ra b",
      "ay s",
      "di ary",
      "qu i",
      "per man",
      "fo ur",
      "ther apy",
      "dra w",
      "writ er",
      "c x",
      "c es",
      "c ai",
      "d f",
      "k w",
      "m ang",
      "x ia",
      "re cr",
      "am es",
      "sp end",
      "sp ring",
      "if ty",
      "so lo",
      "iv al",
      "wh is",
      "val u",
      "shi eld",
      "moder n",
      "c af",
      "c ase",
      "f ic",
      "h ill",
      "k ap",
      "m g",
      "m ig",
      "m and",
      "n ar",
      "p ow",
      "p ens",
      "p atch",
      "r ush",
      "ent e",
      "ec al",
      "ec urity",
      "ab out",
      "ag a",
      "om a",
      "pro gram",
      "ul tra",
      "me in",
      "met rics",
      "ne o",
      "cy cle",
      "off er",
      "fu ck",
      "amaz on",
      "g in",
      "h ang",
      "k or",
      "l av",
      "p on",
      "en u",
      "et v",
      "et racker",
      "bo und",
      "sm all",
      "ok e",
      "mat es",
      "priv at",
      "loy al",
      "bn b",
      "inte gr",
      "univers ity",
      "d im",
      "f ak",
      "j k",
      "o us",
      "r h",
      "s mo",
      "t ub",
      "v ille",
      "w as",
      "re fer",
      "ch t",
      "ra ce",
      "li mit",
      "bo ot",
      "se a",
      "ne ed",
      "bank ing",
      "dra gon",
      "wr ite",
      "aud it",
      "sha adi",
      "mach ine",
      "i que",
      "m ur",
      "st ad",
      "en n",
      "at ive",
      "re x",
      "ch ip",
      "el it",
      "th est",
      "un ion",
      "op ro",
      "sh ad",
      "di al",
      "ul l",
      "for d",
      "mi jn",
      "anc er",
      "kit chen",
      "bt c",
      "freed om",
      "b am",
      "b ask",
      "b urn",
      "t ell",
      "y el",
      "st age",
      "et ime",
      "as ure",
      "ad venture",
      "ab e",
      "ut ter",
      "ep er",
      "be am",
      "end s",
      "ph ys",
      "col le",
      "way s",
      "pos it",
      "bul l",
      "pd f",
      "perman ent",
      "a co",
      "k ay",
      "l ens",
      "t ow",
      "in os",
      "in flu",
      "el i",
      "ro id",
      "ec ard",
      "ve gas",
      "be an",
      "met am",
      "ill er",
      "gr and",
      "hel per",
      "stu ff",
      "ret ail",
      "gl ass",
      "meet ing",
      "pan el",
      "train er",
      "creat ive",
      "nom ad",
      "c afe",
      "g low",
      "r v",
      "t os",
      "t utor",
      "w et",
      "z oom",
      "in ess",
      "ar is",
      "ro und",
      "le v",
      "th ings",
      "em ed",
      "sh in",
      "art ist",
      "pro g",
      "qu ad",
      "ind ust",
      "iz en",
      "sk i",
      "ax y",
      "lu c",
      "str ate",
      "ener g",
      "tax i",
      "nex us",
      "p k",
      "s g",
      "s ure",
      "s ight",
      "er c",
      "de ad",
      "ec are",
      "ik o",
      "ev al",
      "man n",
      "au x",
      "anc ed",
      "mem or",
      "fir m",
      "fa ith",
      "swe et",
      "offic ial",
      "d ict",
      "f all",
      "l ant",
      "u an",
      "in al",
      "on ed",
      "th ub",
      "il es",
      "ab les",
      "pl ate",
      "yp e",
      "sup ers",
      "sup ply",
      "mind ful",
      "mus e",
      "pra yer",
      "sign al",
      "hol d",
      "g eb",
      "h em",
      "j r",
      "k im",
      "m esh",
      "p ai",
      "p ir",
      "t id",
      "w d",
      "el ist",
      "ro of",
      "ac il",
      "ent ial",
      "sh er",
      "sh ib",
      "di st",
      "ey our",
      "ma in",
      "ho ur",
      "red it",
      "block s",
      "exper ience",
      "sil ver",
      "compan ion",
      "b ew",
      "b ond",
      "c b",
      "j um",
      "s ai",
      "w en",
      "y ar",
      "y am",
      "it z",
      "es c",
      "el le",
      "ra is",
      "co vid",
      "ap pro",
      "ab l",
      "qu ot",
      "com pl",
      "do ub",
      "dig i",
      "dis ney",
      "bur g",
      "allen ge",
      "b li",
      "d ock",
      "e q",
      "f b",
      "j ot",
      "n im",
      "o il",
      "p om",
      "t as",
      "t ed",
      "t ut",
      "y ard",
      "y stem",
      "in et",
      "us s",
      "sh ark",
      "ma is",
      "ho sp",
      "iz za",
      "ite ch",
      "zz le",
      "leg acy",
      "invest or",
      "led ger",
      "crypt oc",
      "spac es",
      "educ ation",
      "g ain",
      "h id",
      "j ap",
      "t ure",
      "u v",
      "z et",
      "et he",
      "el ect",
      "th ri",
      "ent al",
      "est er",
      "ast e",
      "hot els",
      "point s",
      "indi a",
      "esp ace",
      "b cp",
      "j t",
      "k op",
      "l ick",
      "o logy",
      "et rack",
      "re w",
      "el lo",
      "sp a",
      "sp lus",
      "mo unt",
      "ort al",
      "for man",
      "ter ra",
      "cre d",
      "min er",
      "ont rol",
      "tru th",
      "amer ican",
      "brow ser",
      "hist ory",
      "e i",
      "g d",
      "j ay",
      "j im",
      "l ite",
      "n as",
      "r ar",
      "r up",
      "s op",
      "x in",
      "ar ab",
      "el ement",
      "ur l",
      "ad os",
      "ip tv",
      "ma j",
      "com mon",
      "gro cer",
      "pr et",
      "sn ip",
      "cryp top",
      "od ay",
      "ff ic",
      "coun ter",
      "tho ught",
      "b im",
      "l c",
      "r k",
      "an te",
      "st ate",
      "le ap",
      "co lo",
      "oc i",
      "est at",
      "sc ience",
      "met ro",
      "sw ip",
      "lock er",
      "sal on",
      "ez y",
      "a adi",
      "e in",
      "f ot",
      "h aven",
      "u er",
      "u el",
      "or m",
      "el ife",
      "ur i",
      "em ot",
      "ag em",
      "ak u",
      "id ad",
      "con ver",
      "con stru",
      "lin es",
      "ma z",
      "ho li",
      "iv ity",
      "gu e",
      "pay ment",
      "fre ight",
      "chat gpt",
      "gra b",
      "flow er",
      "sol ution",
      "ung s",
      "ier ge",
      "stor m",
      "fac il",
      "nor th",
      "matri x",
      "near me",
      "g ps",
      "n al",
      "o und",
      "r c",
      "at ure",
      "ap ol",
      "im er",
      "up er",
      "um a",
      "sm ile",
      "ho lo",
      "for ward",
      "iz on",
      "mi le",
      "rit ion",
      "design er",
      "deal er",
      "pas sport",
      "batt le",
      "b ly",
      "e a",
      "r ica",
      "s is",
      "s ah",
      "t ake",
      "er ve",
      "le mon",
      "up s",
      "cl us",
      "ang er",
      "ach e",
      "real ty",
      "ret ro",
      "cc ess",
      "nam e",
      "dem and",
      "sho ot",
      "prot ect",
      "devel op",
      "d ed",
      "d aw",
      "f em",
      "h es",
      "h ud",
      "j ump",
      "m k",
      "n n",
      "o ve",
      "o dy",
      "r in",
      "t oc",
      "al arm",
      "st ash",
      "it as",
      "ch in",
      "ic le",
      "li an",
      "ak t",
      "qu ote",
      "tra des",
      "tr ue",
      "gam er",
      "pr ene",
      "ple x",
      "dra ft",
      "scri be",
      "anal y",
      "pod cast",
      "diam ond",
      "g ay",
      "g if",
      "h av",
      "l v",
      "n ak",
      "q l",
      "t d",
      "on i",
      "on ec",
      "ro m",
      "ap ex",
      "ag ram",
      "om ni",
      "sp er",
      "um i",
      "tra ce",
      "gr at",
      "let ter",
      "val ley",
      "liv es",
      "edu le",
      "cour se",
      "aro und",
      "ebo ard",
      "ryp to",
      "c iv",
      "d ut",
      "g ut",
      "k es",
      "p oo",
      "it ter",
      "co op",
      "ri a",
      "ab a",
      "em s",
      "om i",
      "ex am",
      "ep e",
      "he ar",
      "af in",
      "yo ga",
      "au g",
      "au ra",
      "au ction",
      "ide as",
      "mer ch",
      "find my",
      "pet s",
      "mem ory",
      "priv acy",
      "fro m",
      "b m",
      "c ed",
      "d v",
      "h ong",
      "j ing",
      "k ir",
      "n k",
      "r ick",
      "s ak",
      "w ang",
      "co co",
      "om et",
      "im age",
      "di r",
      "bo b",
      "sc r",
      "for ever",
      "ev en",
      "aut os",
      "mar i",
      "connect ed",
      "nat ure",
      "ll c",
      "cri pt",
      "sta ur",
      "custom er",
      "c ms",
      "f g",
      "g all",
      "l m",
      "m ol",
      "r ant",
      "s ed",
      "w ander",
      "re search",
      "ch am",
      "is o",
      "un o",
      "em ate",
      "ve gan",
      "bo un",
      "se at",
      "ew eb",
      "dat as",
      "ide al",
      "fr uit",
      "rid ge",
      "part ners",
      "sur vey",
      "phot os",
      "anim al",
      "b art",
      "g ow",
      "h il",
      "h one",
      "k ub",
      "l ag",
      "n x",
      "u w",
      "er i",
      "co t",
      "de bt",
      "ri m",
      "ec ure",
      "pro s",
      "tra k",
      "ey ou",
      "ik i",
      "no va",
      "ok u",
      "by tes",
      "ator s",
      "shop ping",
      "sec ur",
      "si cher",
      "che ap",
      "build ing",
      "feed back",
      "meta verse",
      "erv ices",
      "rep air",
      "arket ing",
      "consult ing",
      "miss ion",
      "b v",
      "f ont",
      "g ul",
      "j on",
      "k ab",
      "m ine",
      "z ar",
      "en ot",
      "re z",
      "am ent",
      "is k",
      "ep oint",
      "ew allet",
      "aw are",
      "so uth",
      "ill s",
      "sn ack",
      "mi ra",
      "vide os",
      "law yer",
      "cour t",
      "liqu id",
      "bask et",
      "d one",
      "g ab",
      "h h",
      "k ong",
      "m ec",
      "n oc",
      "q p",
      "r ation",
      "v p",
      "v ity",
      "w ak",
      "ch ild",
      "el li",
      "le as",
      "ap ital",
      "vi bes",
      "sc anner",
      "ma h",
      "ho u",
      "log ies",
      "smart er",
      "cy cl",
      "min i",
      "cap e",
      "fact or",
      "cro s",
      "heal ing",
      "b ec",
      "d z",
      "g ing",
      "h m",
      "j os",
      "p ace",
      "p lot",
      "s ip",
      "t ic",
      "u le",
      "u pl",
      "w ai",
      "y y",
      "an ager",
      "on to",
      "or bit",
      "ch ap",
      "le ase",
      "ig e",
      "um ent",
      "ep al",
      "met ab",
      "fin ity",
      "fl at",
      "fr en",
      "bir th",
      "ben ch",
      "blo x",
      "hero es",
      "univer se",
      "nin ja",
      "recr uit",
      "d ai",
      "d ry",
      "f d",
      "i di",
      "l ate",
      "o lo",
      "p lo",
      "p ie",
      "r l",
      "s ust",
      "t ube",
      "y acht",
      "ar ena",
      "ch allenge",
      "as on",
      "ed er",
      "ab c",
      "ex tra",
      "se ven",
      "aw a",
      "cre ate",
      "cor d",
      "mind s",
      "inst a",
      "val ue",
      "led ge",
      "emp loy",
      "collect ive",
      "b g",
      "b eb",
      "b link",
      "e ats",
      "h c",
      "s ir",
      "t win",
      "u f",
      "x s",
      "z illa",
      "en cy",
      "en cer",
      "el and",
      "ic om",
      "ra w",
      "am ed",
      "ac le",
      "oc on",
      "be ing",
      "go als",
      "cr yst",
      "az ar",
      "met er",
      "met ap",
      "ne ver",
      "bit e",
      "mat ter",
      "gr an",
      "track ing",
      "food s",
      "view er",
      "ren cy",
      "every thing",
      "found ation",
      "goo gle",
      "pand a",
      "recor d",
      "proc ess",
      "a ign",
      "g ap",
      "h im",
      "k is",
      "s z",
      "t um",
      "t emp",
      "u lo",
      "v m",
      "v or",
      "w ink",
      "y on",
      "re f",
      "it t",
      "ing en",
      "ec e",
      "em ind",
      "sh el",
      "sp r",
      "my st",
      "ver ify",
      "bi a",
      "sc ale",
      "ev a",
      "sk ip",
      "health care",
      "sec ond",
      "map fre",
      "stor age",
      "fil ter",
      "ben e",
      "remot e",
      "esty le",
      "bras il",
      "d ab",
      "e ast",
      "h us",
      "i y",
      "j ia",
      "k ot",
      "p il",
      "t iger",
      "y oo",
      "en z",
      "em ap",
      "ag on",
      "um b",
      "pro file",
      "est h",
      "te en",
      "yp ay",
      "we ight",
      "pay ments",
      "ne igh",
      "fit nes",
      "dat es",
      "tim et",
      "lot tery",
      "tri be",
      "del iver",
      "iver se",
      "vir al",
      "trans fer",
      "sit es",
      "psy ch",
      "innov ation",
      "libr ary",
      "a ust",
      "d w",
      "j c",
      "j p",
      "j ud",
      "s es",
      "u di",
      "z r",
      "z hu",
      "in y",
      "in to",
      "st ake",
      "or th",
      "re k",
      "re staur",
      "it ar",
      "un k",
      "ec ar",
      "ec ast",
      "pro xy",
      "for est",
      "no vel",
      "ser ve",
      "lot to",
      "su it",
      "bre ath",
      "pol l",
      "bro ad",
      "hand y",
      "lux ury",
      "tran sport",
      "dol lar",
      "lang u",
      "spec ial",
      "wol f",
      "explor er",
      "plann ing",
      "shad ow",
      "c ip",
      "c tr",
      "e com",
      "g w",
      "g li",
      "h all",
      "k ok",
      "n b",
      "q o",
      "ro b",
      "ed oc",
      "ot er",
      "ag end",
      "pro x",
      "af ric",
      "ess ion",
      "aut op",
      "pre st",
      "hot o",
      "pos e",
      "crypt om",
      "dash board",
      "tick ets",
      "gal axy",
      "mult i",
      "review s",
      "colle ge",
      "b au",
      "c us",
      "d ance",
      "h ap",
      "k re",
      "l unch",
      "n ord",
      "p izz",
      "r ug",
      "s f",
      "t ix",
      "in u",
      "ar ma",
      "ch ick",
      "un ter",
      "ig en",
      "bo ur",
      "con vers",
      "con vert",
      "ind o",
      "sc ar",
      "sy ner",
      "gu y",
      "dat ab",
      "gl am",
      "ari um",
      "ord ers",
      "cel er",
      "squ ar",
      "alph a",
      "pag es",
      "imag in",
      "b em",
      "b arn",
      "b har",
      "d af",
      "k os",
      "k ont",
      "m ask",
      "s ag",
      "s ail",
      "t ad",
      "t ang",
      "v ue",
      "w ide",
      "w rap",
      "al ter",
      "or ld",
      "et work",
      "ro y",
      "ro ute",
      "lo k",
      "ed in",
      "ed en",
      "ed itor",
      "ec lub",
      "op e",
      "ol ic",
      "qu otes",
      "ew e",
      "get s",
      "ood le",
      "au de",
      "ez e",
      "dis cover",
      "spe ech",
      "pra y",
      "graph y",
      "pick le",
      "univer sal",
      "infin it",
      "num ber",
      "jes us",
      "b ark",
      "i ri",
      "k li",
      "k od",
      "o le",
      "s ne",
      "w ir",
      "x per",
      "ar en",
      "an sw",
      "en de",
      "or p",
      "el ess",
      "as ia",
      "co w",
      "ad io",
      "ve x",
      "ep ass",
      "ly t",
      "cr ush",
      "fi li",
      "mon ster",
      "fit s",
      "wh y",
      "str at",
      "bal ance",
      "ech o",
      "check er",
      "squ are",
      "sug ar",
      "mortg age",
      "d p",
      "d ont",
      "s lo",
      "x iao",
      "y ah",
      "li g",
      "ad igital",
      "ri es",
      "ab y",
      "sh ap",
      "sh elf",
      "os a",
      "me u",
      "be es",
      "ey es",
      "ok er",
      "ber t",
      "hu a",
      "mem o",
      "wa it",
      "fun nel",
      "emo bile",
      "coun try",
      "movi e",
      "wind ow",
      "d av",
      "h ik",
      "n oo",
      "n eb",
      "p ain",
      "s ap",
      "t ank",
      "v ig",
      "w ec",
      "z ent",
      "z im",
      "et i",
      "el ly",
      "ro bo",
      "lo st",
      "co ast",
      "is lam",
      "li b",
      "un es",
      "un ge",
      "ad es",
      "ri k",
      "ri v",
      "em et",
      "ut o",
      "sp ay",
      "eb er",
      "ex ec",
      "te e",
      "cl as",
      "ist s",
      "ach i",
      "mat er",
      "gra de",
      "ens ion",
      "anc es",
      "mus lim",
      "fr ank",
      "market place",
      "ful ly",
      "wis dom",
      "cho ice",
      "rand om",
      "bub ble",
      "jew el",
      "sust ain",
      "b read",
      "c and",
      "c yp",
      "c bd",
      "f ill",
      "g ang",
      "h iz",
      "h ust",
      "h ao",
      "j ur",
      "m af",
      "n l",
      "o th",
      "t k",
      "t ol",
      "t up",
      "y x",
      "in ar",
      "el ite",
      "ra j",
      "co ck",
      "co ding",
      "is er",
      "ed el",
      "il s",
      "il der",
      "ad am",
      "ag ic",
      "ag ement",
      "ut en",
      "and roid",
      "if f",
      "av atar",
      "cl es",
      "und ry",
      "bet ting",
      "met as",
      "fl ag",
      "ink s",
      "dr on",
      "mar y",
      "arn ing",
      "sa ver",
      "ff le",
      "cas a",
      "ze it",
      "eg g",
      "lif es",
      "ten nis",
      "vol t",
      "king dom",
      "yu an",
      "tour s",
      "amer ica",
      "mobil ity",
      "ewor ld",
      "qur an",
      "yel low",
      "prene ur",
      "c f",
      "c ia",
      "c ube",
      "d as",
      "k ings",
      "l azy",
      "m ill",
      "n ai",
      "r end",
      "s us",
      "x l",
      "x ing",
      "an th",
      "ch ill",
      "lo o",
      "ed ul",
      "ed ev",
      "em usic",
      "sh ak",
      "pl a",
      "pl es",
      "pl ans",
      "ver sicher",
      "bi zz",
      "av o",
      "boo th",
      "man ia",
      "min ut",
      "soc cer",
      "read ing",
      "mot iv",
      "ons ult",
      "bri ef",
      "sco pe",
      "war ri",
      "nat ive",
      "bol t",
      "lan e",
      "skill s",
      "alert s",
      "eman ager",
      "emon ey",
      "wom en",
      "cryst al",
      "b ass",
      "h ats",
      "i enc",
      "m ul",
      "m ash",
      "p ent",
      "t g",
      "t n",
      "z l",
      "z am",
      "z ing",
      "in voice",
      "st amp",
      "en st",
      "en ix",
      "re ch",
      "co g",
      "th r",
      "li l",
      "ac ar",
      "ot s",
      "em atch",
      "ag i",
      "ag ing",
      "ag ile",
      "ve e",
      "ve g",
      "eb y",
      "eb all",
      "bi e",
      "ant a",
      "do x",
      "per forman",
      "sw im",
      "dat ap",
      "gra ce",
      "eng th",
      "ner d",
      "cel eb",
      "hal al",
      "movi es",
      "auth or",
      "rum my",
      "dad dy",
      "b und",
      "j l",
      "k ore",
      "l ake",
      "n aut",
      "n ifty",
      "p v",
      "r n",
      "s ort",
      "t il",
      "w ast",
      "er al",
      "er en",
      "at ter",
      "es a",
      "es is",
      "ic i",
      "is it",
      "ac are",
      "ot t",
      "ab ox",
      "ag ri",
      "ig ator",
      "ul se",
      "tra v",
      "con sc",
      "he at",
      "wor x",
      "bl er",
      "cr it",
      "so le",
      "fin al",
      "ann a",
      "sch edule",
      "dis count",
      "sel ect",
      "tw o",
      "brand s",
      "hand s",
      "but ler",
      "tar get",
      "amer ic",
      "venture s",
      "invent ory",
      "guar dian",
      "hosp ital",
      "constru ction",
      "b by",
      "d ish",
      "d ong",
      "h ed",
      "h ig",
      "i u",
      "j en",
      "j it",
      "j av",
      "m ock",
      "n ab",
      "n ag",
      "p ill",
      "s ac",
      "s ud",
      "in box",
      "at v",
      "re de",
      "ro o",
      "li vel",
      "ad ult",
      "em ax",
      "vi vo",
      "eb uddy",
      "pro mo",
      "con f",
      "ers on",
      "lin ic",
      "fi e",
      "ide a",
      "dr one",
      "bon us",
      "fund s",
      "fund ing",
      "nat ural",
      "gar age",
      "nut rition",
      "etra vel",
      "insp ire",
      "christ ian",
      "fah r",
      "h ur",
      "h az",
      "o ak",
      "r ang",
      "z in",
      "an go",
      "re m",
      "ch u",
      "ch es",
      "as is",
      "co pilot",
      "th re",
      "ec a",
      "im ent",
      "my n",
      "di ff",
      "ep rint",
      "af or",
      "so u",
      "car go",
      "sw ing",
      "ys is",
      "market s",
      "ond on",
      "part s",
      "crypt os",
      "capt ain",
      "buck s",
      "mobi li",
      "fav or",
      "soci ety",
      "b ingo",
      "c ant",
      "c andy",
      "d k",
      "g ad",
      "h ug",
      "j m",
      "j ab",
      "o i",
      "p f",
      "v ul",
      "z hi",
      "al ign",
      "en i",
      "at el",
      "re act",
      "ch oo",
      "ro k",
      "th om",
      "de k",
      "ot ech",
      "ur b",
      "sp at",
      "um o",
      "bo d",
      "se al",
      "ort ex",
      "af rica",
      "sc lub",
      "bl ast",
      "do k",
      "boo ster",
      "we i",
      "aut oc",
      "lab el",
      "pe op",
      "ou ch",
      "room s",
      "ste am",
      "rec ipe",
      "every day",
      "auth ent",
      "plac es",
      "prog ress",
      "c ep",
      "e on",
      "e ur",
      "h g",
      "j ol",
      "m ant",
      "n ip",
      "r p",
      "v v",
      "w n",
      "w od",
      "st able",
      "it ude",
      "ch ase",
      "ed ata",
      "ap ost",
      "ab ly",
      "im es",
      "ver n",
      "pro mot",
      "est im",
      "est udio",
      "qu are",
      "tra d",
      "bu ff",
      "aw es",
      "ne on",
      "pi an",
      "ze e",
      "host ing",
      "priv ate",
      "coup on",
      "a ero",
      "c ake",
      "e er",
      "f ang",
      "g lu",
      "j ug",
      "k ad",
      "k ak",
      "n ub",
      "t us",
      "t app",
      "t ies",
      "z x",
      "z or",
      "al ity",
      "re ce",
      "le o",
      "ed esign",
      "ac a",
      "us ed",
      "ag le",
      "im i",
      "sp rint",
      "pro du",
      "ul ator",
      "to y",
      "mo st",
      "af ety",
      "az i",
      "res ult",
      "ain ment",
      "au f",
      "ins ure",
      "eng age",
      "dr um",
      "mar in",
      "par ad",
      "hu i",
      "inter national",
      "mot o",
      "arch it",
      "ven u",
      "pol it",
      "cra zy",
      "run ner",
      "friend ly",
      "ru ck",
      "mil k",
      "mac ro",
      "stick er",
      "conc ierge",
      "logist ics",
      "loyal ty",
      "gall ery",
      "b z",
      "g ather",
      "h ung",
      "j f",
      "k ash",
      "l ater",
      "m ust",
      "p unch",
      "t b",
      "t att",
      "v ap",
      "an cy",
      "en di",
      "et ics",
      "ch ina",
      "le ep",
      "ra h",
      "ed ay",
      "un is",
      "ab ank",
      "em as",
      "ag ain",
      "op in",
      "my s",
      "ol ab",
      "vi st",
      "ep ad",
      "bo ut",
      "if ul",
      "con n",
      "yo ung",
      "mon t",
      "res um",
      "ens or",
      "lot s",
      "ha ve",
      "cas in",
      "cam era",
      "ling o",
      "bor ed",
      "ste in",
      "flo or",
      "emp ire",
      "equ ip",
      "ific ation",
      "vac ation",
      "aza ar",
      "orig in",
      "segu ro",
      "medit ation",
      "rab bit",
      "d anc",
      "f ax",
      "f etch",
      "j ak",
      "k m",
      "m ud",
      "n ud",
      "v t",
      "v ak",
      "w alt",
      "in vit",
      "on em",
      "at lant",
      "re li",
      "re sc",
      "lo ans",
      "am in",
      "am an",
      "ap lus",
      "de o",
      "de ath",
      "sh ape",
      "my c",
      "pro j",
      "qu er",
      "tr um",
      "be ats",
      "ho le",
      "iz a",
      "iz ation",
      "bl iss",
      "ph y",
      "pr ise",
      "dy n",
      "ock ey",
      "back up",
      "kr yp",
      "dn s",
      "reg ist",
      "fro g",
      "pur ple",
      "gir ls",
      "fest ival",
      "mast ers",
      "soli d",
      "b ac",
      "j al",
      "m app",
      "p act",
      "r ut",
      "r ice",
      "s ist",
      "t ier",
      "u h",
      "st ers",
      "st alk",
      "or ies",
      "et ail",
      "re stor",
      "es ports",
      "as er",
      "th rive",
      "ur f",
      "ri o",
      "ri be",
      "ri des",
      "ent ry",
      "ent ral",
      "em aster",
      "im pro",
      "sh it",
      "sh ut",
      "sp ell",
      "di y",
      "ow ner",
      "est e",
      "tra x",
      "tra ffic",
      "me e",
      "for ex",
      "ial s",
      "ah a",
      "gen cy",
      "wh ite",
      "pe ar",
      "col leg",
      "ight s",
      "gr ub",
      "dr ug",
      "cor ner",
      "cor por",
      "mind set",
      "inst all",
      "bar ber",
      "our s",
      "cat al",
      "ju an",
      "talk ing",
      "hol y",
      "shar es",
      "hor izon",
      "but ton",
      "coun sel",
      "creat iv",
      "autom ation",
      "hack er",
      "typ e",
      "pres ent",
      "capt ure",
      "eas yp",
      "vill age",
      "pract ice",
      "premi um",
      "mount ain",
      "a ar",
      "c d",
      "d ress",
      "g az",
      "h os",
      "j h",
      "k inder",
      "m um",
      "q w",
      "s ep",
      "t is",
      "t ig",
      "v d",
      "y ing",
      "z an",
      "z il",
      "z ai",
      "en ote",
      "on ep",
      "re covery",
      "it em",
      "ch or",
      "ch el",
      "le k",
      "ed a",
      "ed up",
      "ac ity",
      "il er",
      "ab ook",
      "om ar",
      "eb ase",
      "ul u",
      "mo j",
      "me up",
      "be acon",
      "sc ap",
      "go at",
      "ash op",
      "ess ential",
      "fin e",
      "ne ural",
      "fl am",
      "wh en",
      "ish op",
      "sch oo",
      "mer c",
      "su ccess",
      "connect ion",
      "inst it",
      "hu is",
      "form ation",
      "da vid",
      "leg end",
      "esh are",
      "pad el",
      "camp aign",
      "collect ion",
      "tik tok",
      "simpl es",
      "bun ny",
      "haw k",
      "wid get",
      "stag ing",
      "c ue",
      "f ter",
      "g x",
      "g um",
      "h ep",
      "j y",
      "l al",
      "m aid",
      "n en",
      "v em",
      "y ak",
      "er r",
      "on er",
      "re vi",
      "re vol",
      "ro up",
      "am os",
      "ri der",
      "em power",
      "em aker",
      "im mo",
      "oc s",
      "art er",
      "pro te",
      "est ore",
      "me als",
      "bi os",
      "af i",
      "ho list",
      "bl ind",
      "cr ash",
      "ph il",
      "aw eb",
      "ek e",
      "list en",
      "comp os",
      "fer ence",
      "bro s",
      "jam es",
      "fol d",
      "indi an",
      "collect or",
      "hop e",
      "ict ion",
      "mess age",
      "mir ror",
      "techno logy",
      "strate gy",
      "consc ious",
      "b p",
      "b w",
      "c ak",
      "c ass",
      "e ve",
      "g j",
      "h ad",
      "h ind",
      "l ash",
      "m ia",
      "o ul",
      "q s",
      "s ik",
      "s aw",
      "t ally",
      "v at",
      "v ant",
      "w em",
      "y ork",
      "er k",
      "an to",
      "st itch",
      "ch il",
      "ch air",
      "ro ss",
      "th ank",
      "ed igital",
      "ad ar",
      "sh ine",
      "my car",
      "my health",
      "pl um",
      "vi et",
      "ew ell",
      "ew ise",
      "te a",
      "af fili",
      "sc loud",
      "sm ash",
      "ir l",
      "ir is",
      "for mat",
      "ick s",
      "bu x",
      "sk etch",
      "met ac",
      "gu ess",
      "work er",
      "ax is",
      "web site",
      "ib a",
      "min al",
      "min im",
      "bus y",
      "comm and",
      "que en",
      "master y",
      "hab its",
      "shar ed",
      "load er",
      "reg ister",
      "insp ect",
      "wik i",
      "unic orn",
      "teach er",
      "qual ity",
      "vic tor",
      "limit ed",
      "jap an",
      "holi day",
      "a int",
      "b ach",
      "c il",
      "d um",
      "e go",
      "j oo",
      "j pm",
      "k ed",
      "o ot",
      "p is",
      "p air",
      "r hy",
      "t ay",
      "x a",
      "z ig",
      "an ia",
      "al ar",
      "al ive",
      "et z",
      "et est",
      "re quest",
      "ro le",
      "ic are",
      "lo vel",
      "ra i",
      "ent a",
      "ec or",
      "ec ret",
      "om ed",
      "im ple",
      "ut z",
      "sh out",
      "sp an",
      "est ar",
      "qu ik",
      "ud a",
      "int ro",
      "jo int",
      "ter n",
      "no st",
      "man y",
      "met hod",
      "dat af",
      "fo li",
      "mat ters",
      "track s",
      "la undry",
      "ha ul",
      "ret urn",
      "uk i",
      "eth is",
      "ush i",
      "lif estyle",
      "ju ice",
      "ban co",
      "gift s",
      "coun ty",
      "cit izen",
      "buck et",
      "clar ity",
      "grocer y",
      "b ard",
      "b anc",
      "d app",
      "g ai",
      "g ly",
      "j ung",
      "k lo",
      "k ill",
      "k ink",
      "o de",
      "r ite",
      "s und",
      "v ay",
      "x c",
      "z ah",
      "z org",
      "al li",
      "st v",
      "or ia",
      "el abs",
      "th y",
      "is y",
      "ing les",
      "ac loud",
      "ot ic",
      "ot to",
      "ur t",
      "ur ish",
      "ri g",
      "ag enda",
      "om es",
      "om ic",
      "im medi",
      "ut s",
      "sh ir",
      "di ag",
      "ub a",
      "ex po",
      "mo us",
      "ew ith",
      "ort s",
      "int ent",
      "ir cle",
      "ick ets",
      "met at",
      "gu itar",
      "car es",
      "ft y",
      "ie ve",
      "ah ub",
      "fl av",
      "dat am",
      "fre el",
      "gra f",
      "air port",
      "val id",
      "can vas",
      "dri p",
      "eth ing",
      "che at",
      "dream s",
      "nat ur",
      "emo j",
      "las er",
      "product s",
      "sell er",
      "pu zzle",
      "sour c",
      "atom ic",
      "spat ial",
      "b f",
      "e al",
      "g f",
      "h in",
      "h art",
      "h of",
      "h ell",
      "j aw",
      "k oo",
      "k em",
      "m orn",
      "n op",
      "n ick",
      "q t",
      "r pg",
      "t act",
      "v ai",
      "w ant",
      "w att",
      "z ak",
      "in ation",
      "ar ies",
      "al lo",
      "al go",
      "en vi",
      "en ft",
      "or ch",
      "et on",
      "re is",
      "ch ic",
      "ch op",
      "lo ot",
      "oo f",
      "ent ert",
      "ec all",
      "pl ic",
      "vi sta",
      "ul tr",
      "est o",
      "ep ark",
      "qu it",
      "of ic",
      "me at",
      "me ister",
      "end ing",
      "ma int",
      "for um",
      "bl az",
      "bu ch",
      "no logy",
      "iv ot",
      "met af",
      "res erv",
      "ok i",
      "wh ol",
      "vo ices",
      "by t",
      "ult ure",
      "comp are",
      "view s",
      "mag az",
      "mem e",
      "any where",
      "fam ili",
      "lit t",
      "build ers",
      "xx x",
      "fort un",
      "mess enger",
      "rac ing",
      "jun k",
      "foo di",
      "giv ing",
      "bah is",
      "tex as",
      "restaur ant",
      "b orn",
      "d ag",
      "f ert",
      "j or",
      "k d",
      "k ik",
      "l az",
      "m ip",
      "p us",
      "p im",
      "v int",
      "w ifi",
      "in tr",
      "in voic",
      "st h",
      "st en",
      "on demand",
      "at he",
      "ro d",
      "is on",
      "ed s",
      "de cor",
      "us iness",
      "oo th",
      "om eg",
      "ol is",
      "ol ution",
      "ve h",
      "oc ity",
      "art e",
      "ub i",
      "pro sper",
      "ul es",
      "and go",
      "ew atch",
      "he im",
      "ge on",
      "for me",
      "yo g",
      "yo us",
      "bl ank",
      "mon et",
      "sw ipe",
      "ish i",
      "sch e",
      "col d",
      "plan e",
      "pri m",
      "any thing",
      "ico in",
      "fun n",
      "cam er",
      "ord in",
      "na vi",
      "cur rency",
      "house of",
      "equ ity",
      "writ ing",
      "dec ision",
      "fal con",
      "gat eway",
      "techno logies",
      "luc id",
      "a esth",
      "c ic",
      "c ath",
      "d art",
      "d ani",
      "f et",
      "g ie",
      "h ac",
      "h iv",
      "j w",
      "j ian",
      "k ers",
      "l af",
      "s eb",
      "t ac",
      "v il",
      "w ick",
      "w ats",
      "an et",
      "an de",
      "or ange",
      "ch ines",
      "lo om",
      "ra ph",
      "am ar",
      "de z",
      "ad apt",
      "op ent",
      "op ens",
      "ig u",
      "im on",
      "ion es",
      "vi da",
      "art ific",
      "ak o",
      "to go",
      "mo ther",
      "ind ig",
      "sc en",
      "ass ets",
      "ph ant",
      "the alth",
      "fl are",
      "aut on",
      "cal m",
      "lab or",
      "cre di",
      "hom et",
      "shop per",
      "ke e",
      "not ify",
      "od el",
      "str ength",
      "pre c",
      "mag net",
      "att orn",
      "our ce",
      "fam il",
      "stream s",
      "hy dro",
      "har mon",
      "war s",
      "cosm ic",
      "enet work",
      "thread s",
      "comput er",
      "muse um",
      "doub le",
      "bhar at",
      "d ail",
      "g ast",
      "g ist",
      "h atch",
      "h ors",
      "l ord",
      "n w",
      "n em",
      "r il",
      "s ad",
      "t z",
      "w if",
      "w ah",
      "y c",
      "z ep",
      "er os",
      "in no",
      "al ia",
      "al ist",
      "on der",
      "at y",
      "es g",
      "lo go",
      "lo bal",
      "ec to",
      "ab u",
      "ab el",
      "ab il",
      "up p",
      "eb re",
      "est a",
      "id os",
      "bo k",
      "bo u",
      "be ep",
      "be ast",
      "sm arth",
      "ho und",
      "av es",
      "ick er",
      "cr u",
      "ph ere",
      "ach at",
      "sw ay",
      "dat ac",
      "fre es",
      "ef low",
      "ef fect",
      "mark s",
      "min ing",
      "list s",
      "tri vi",
      "comp liance",
      "world s",
      "key s",
      "mak ers",
      "og a",
      "good s",
      "team s",
      "dom in",
      "son ic",
      "invest ing",
      "char ity",
      "blu es",
      "dog s",
      "crypt ot",
      "ear ly",
      "ste el",
      "oh my",
      "whats app",
      "mil lion",
      "but ter",
      "clean ing",
      "far ms",
      "chart s",
      "add ress",
      "tit an",
      "agro up",
      "dep loy",
      "lyt ics",
      "warri or",
      "a an",
      "a as",
      "b op",
      "b eck",
      "c um",
      "c ure",
      "f w",
      "k b",
      "k ev",
      "m ist"
    ]
  }
}